{
  "version": "1.0",
  "truncation": null,
  "padding": null,
  "added_tokens": [
    {
      "id": 0,
      "content": "[UNK]",
      "single_word": false,
      "lstrip": false,
      "rstrip": false,
      "normalized": false,
      "special": true
    },
    {
      "id": 1,
      "content": "[PAD]",
      "single_word": false,
      "lstrip": false,
      "rstrip": false,
      "normalized": false,
      "special": true
    },
    {
      "id": 2,
      "content": "[SOS]",
      "single_word": false,
      "lstrip": false,
      "rstrip": false,
      "normalized": false,
      "special": true
    },
    {
      "id": 3,
      "content": "[EOS]",
      "single_word": false,
      "lstrip": false,
      "rstrip": false,
      "normalized": false,
      "special": true
    }
  ],
  "normalizer": null,
  "pre_tokenizer": {
    "type": "Whitespace"
  },
  "post_processor": null,
  "decoder": null,
  "model": {
    "type": "WordPiece",
    "unk_token": "[UNK]",
    "continuing_subword_prefix": "##",
    "max_input_chars_per_word": 100,
    "vocab": {
      "[UNK]": 0,
      "[PAD]": 1,
      "[SOS]": 2,
      "[EOS]": 3,
      "!": 4,
      "\"": 5,
      "#": 6,
      "$": 7,
      "%": 8,
      "&": 9,
      "'": 10,
      "(": 11,
      ")": 12,
      "*": 13,
      "+": 14,
      ",": 15,
      "-": 16,
      ".": 17,
      "/": 18,
      "0": 19,
      "1": 20,
      "2": 21,
      "3": 22,
      "4": 23,
      "5": 24,
      "6": 25,
      "7": 26,
      "8": 27,
      "9": 28,
      ":": 29,
      ";": 30,
      "=": 31,
      "?": 32,
      "@": 33,
      "A": 34,
      "B": 35,
      "C": 36,
      "D": 37,
      "E": 38,
      "F": 39,
      "G": 40,
      "H": 41,
      "I": 42,
      "J": 43,
      "K": 44,
      "L": 45,
      "M": 46,
      "N": 47,
      "O": 48,
      "P": 49,
      "Q": 50,
      "R": 51,
      "S": 52,
      "T": 53,
      "U": 54,
      "V": 55,
      "W": 56,
      "X": 57,
      "Y": 58,
      "Z": 59,
      "[": 60,
      "]": 61,
      "^": 62,
      "_": 63,
      "`": 64,
      "a": 65,
      "b": 66,
      "c": 67,
      "d": 68,
      "e": 69,
      "f": 70,
      "g": 71,
      "h": 72,
      "i": 73,
      "j": 74,
      "k": 75,
      "l": 76,
      "m": 77,
      "n": 78,
      "o": 79,
      "p": 80,
      "q": 81,
      "r": 82,
      "s": 83,
      "t": 84,
      "u": 85,
      "v": 86,
      "w": 87,
      "x": 88,
      "y": 89,
      "z": 90,
      "": 91,
      "": 92,
      "": 93,
      "": 94,
      "¡": 95,
      "£": 96,
      "¥": 97,
      "©": 98,
      "«": 99,
      "­": 100,
      "®": 101,
      "°": 102,
      "²": 103,
      "³": 104,
      "´": 105,
      "¶": 106,
      "»": 107,
      "¼": 108,
      "½": 109,
      "¾": 110,
      "Ä": 111,
      "Å": 112,
      "Ç": 113,
      "É": 114,
      "Ö": 115,
      "×": 116,
      "Ü": 117,
      "ß": 118,
      "à": 119,
      "á": 120,
      "â": 121,
      "ã": 122,
      "ä": 123,
      "ç": 124,
      "è": 125,
      "é": 126,
      "ê": 127,
      "ë": 128,
      "í": 129,
      "ï": 130,
      "ñ": 131,
      "ó": 132,
      "ô": 133,
      "ö": 134,
      "ø": 135,
      "ú": 136,
      "ü": 137,
      "ý": 138,
      "ā": 139,
      "ć": 140,
      "Č": 141,
      "ě": 142,
      "ī": 143,
      "œ": 144,
      "š": 145,
      "ū": 146,
      "Ű": 147,
      "β": 148,
      "к": 149,
      "Ӓ": 150,
      "‒": 151,
      "–": 152,
      "—": 153,
      "‘": 154,
      "’": 155,
      "‚": 156,
      "“": 157,
      "”": 158,
      "„": 159,
      "‟": 160,
      "…": 161,
      "‹": 162,
      "›": 163,
      "€": 164,
      "™": 165,
      "♪": 166,
      "♫": 167,
      "你": 168,
      "葱": 169,
      "送": 170,
      "﻿": 171,
      "##n": 172,
      "##t": 173,
      "##e": 174,
      "##r": 175,
      "##h": 176,
      "##m": 177,
      "##i": 178,
      "##s": 179,
      "##c": 180,
      "##l": 181,
      "##o": 182,
      "##ü": 183,
      "##k": 184,
      "##a": 185,
      "##p": 186,
      "##d": 187,
      "##u": 188,
      "##z": 189,
      "##g": 190,
      "##ä": 191,
      "##b": 192,
      "##f": 193,
      "##w": 194,
      "##x": 195,
      "##E": 196,
      "##T": 197,
      "##ß": 198,
      "##v": 199,
      "##q": 200,
      "##ö": 201,
      "##R": 202,
      "##I": 203,
      "##C": 204,
      "##M": 205,
      "##2": 206,
      "##1": 207,
      "##y": 208,
      "##G": 209,
      "##B": 210,
      "##j": 211,
      "##4": 212,
      "##0": 213,
      "##\"": 214,
      "##'": 215,
      "##9": 216,
      "##5": 217,
      "##D": 218,
      "##O": 219,
      "##8": 220,
      "##S": 221,
      "##L": 222,
      "##ó": 223,
      "##A": 224,
      "##U": 225,
      "##H": 226,
      "##P": 227,
      "##/": 228,
      "##é": 229,
      "##3": 230,
      "##-": 231,
      "##6": 232,
      "##V": 233,
      "##.": 234,
      "##F": 235,
      "##β": 236,
      "##“": 237,
      "##;": 238,
      "##ø": 239,
      "##K": 240,
      "##)": 241,
      "##7": 242,
      "##á": 243,
      "##,": 244,
      "##Y": 245,
      "##W": 246,
      "##N": 247,
      "##?": 248,
      "##=": 249,
      "##@": 250,
      "##]": 251,
      "##ç": 252,
      "##J": 253,
      "##ë": 254,
      "##!": 255,
      "##‚": 256,
      "##Z": 257,
      "##X": 258,
      "##è": 259,
      "##%": 260,
      "##♪": 261,
      "##ý": 262,
      "##Q": 263,
      "##—": 264,
      "##♫": 265,
      "##‘": 266,
      "##:": 267,
      "###": 268,
      "##„": 269,
      "##»": 270,
      "##‹": 271,
      "##–": 272,
      "##í": 273,
      "##”": 274,
      "##Ü": 275,
      "##‟": 276,
      "##`": 277,
      "##&": 278,
      "##ā": 279,
      "##ã": 280,
      "##š": 281,
      "##ć": 282,
      "##¼": 283,
      "##ñ": 284,
      "##ô": 285,
      "##à": 286,
      "##ê": 287,
      "##©": 288,
      "##™": 289,
      "##«": 290,
      "##[": 291,
      "##$": 292,
      "##½": 293,
      "##ï": 294,
      "##Ä": 295,
      "##¶": 296,
      "##¥": 297,
      "##ū": 298,
      "##ī": 299,
      "##ě": 300,
      "##_": 301,
      "##…": 302,
      "##â": 303,
      "##你": 304,
      "##葱": 305,
      "##en": 306,
      "##er": 307,
      "##ch": 308,
      "##ie": 309,
      "##in": 310,
      "##nd": 311,
      "##st": 312,
      "##ich": 313,
      "##as": 314,
      "##ei": 315,
      "die": 316,
      "ein": 317,
      "##te": 318,
      "##an": 319,
      "##es": 320,
      "##ir": 321,
      "##on": 322,
      "##ll": 323,
      "und": 324,
      "das": 325,
      "##ar": 326,
      "##ten": 327,
      "##un": 328,
      "##sch": 329,
      "##gen": 330,
      "##hr": 331,
      "zu": 332,
      "##em": 333,
      "der": 334,
      "##or": 335,
      "##at": 336,
      "##ein": 337,
      "##it": 338,
      "wir": 339,
      "##au": 340,
      "au": 341,
      "in": 342,
      "ist": 343,
      "##ge": 344,
      "##icht": 345,
      "##al": 346,
      "##el": 347,
      "##ach": 348,
      "##ier": 349,
      "##lich": 350,
      "##ben": 351,
      "##ber": 352,
      "##den": 353,
      "ich": 354,
      "##ter": 355,
      "##ur": 356,
      "##de": 357,
      "##eh": 358,
      "es": 359,
      "##ung": 360,
      "un": 361,
      "dies": 362,
      "er": 363,
      "sie": 364,
      "den": 365,
      "Sie": 366,
      "##ig": 367,
      "##ür": 368,
      "##mm": 369,
      "##et": 370,
      "##ro": 371,
      "##nen": 372,
      "ver": 373,
      "nicht": 374,
      "##der": 375,
      "##ls": 376,
      "##sen": 377,
      "von": 378,
      "dass": 379,
      "##eit": 380,
      "##is": 381,
      "eine": 382,
      "so": 383,
      "##ck": 384,
      "auf": 385,
      "##le": 386,
      "Und": 387,
      "ha": 388,
      "##ann": 389,
      "an": 390,
      "##nder": 391,
      "mit": 392,
      "##ion": 393,
      "##eu": 394,
      "##ind": 395,
      "wie": 396,
      "be": 397,
      "##isch": 398,
      "uns": 399,
      "##ra": 400,
      "##enn": 401,
      "als": 402,
      "##us": 403,
      "##am": 404,
      "war": 405,
      "sch": 406,
      "sich": 407,
      "Ich": 408,
      "##kt": 409,
      "##and": 410,
      "##ut": 411,
      "##ft": 412,
      "##ahr": 413,
      "##ol": 414,
      "sind": 415,
      "ge": 416,
      "##ehr": 417,
      "##ön": 418,
      "##re": 419,
      "haben": 420,
      "für": 421,
      "##be": 422,
      "##ag": 423,
      "##lle": 424,
      "man": 425,
      "hat": 426,
      "##tw": 427,
      "aus": 428,
      "##ste": 429,
      "St": 430,
      "##ehen": 431,
      "um": 432,
      "##iel": 433,
      "##il": 434,
      "##ik": 435,
      "##fen": 436,
      "über": 437,
      "Das": 438,
      "Die": 439,
      "##se": 440,
      "kön": 441,
      "##um": 442,
      "Es": 443,
      "##eine": 444,
      "##och": 445,
      "Wir": 446,
      "Sch": 447,
      "wer": 448,
      "##llen": 449,
      "##sten": 450,
      "##om": 451,
      "##etz": 452,
      "##hl": 453,
      "da": 454,
      "Er": 455,
      "##eil": 456,
      "diese": 457,
      "dem": 458,
      "was": 459,
      "im": 460,
      "##igen": 461,
      "##ern": 462,
      "##esch": 463,
      "In": 464,
      "##zen": 465,
      "ihr": 466,
      "wenn": 467,
      "##bt": 468,
      "##mmen": 469,
      "##chen": 470,
      "einen": 471,
      "Ver": 472,
      "##ien": 473,
      "##ieren": 474,
      "##und": 475,
      "##ensch": 476,
      "##rei": 477,
      "Pro": 478,
      "##elt": 479,
      "des": 480,
      "können": 481,
      "unser": 482,
      "Jahr": 483,
      "werden": 484,
      "##iv": 485,
      "##wei": 486,
      "##sp": 487,
      "oder": 488,
      "##ungen": 489,
      "##hn": 490,
      "vor": 491,
      "Ar": 492,
      "sein": 493,
      "##iert": 494,
      "##men": 495,
      "##zu": 496,
      "##rau": 497,
      "##ation": 498,
      "##nt": 499,
      "ander": 500,
      "##rü": 501,
      "kann": 502,
      "aber": 503,
      "wo": 504,
      "auch": 505,
      "Mensch": 506,
      "einer": 507,
      "Aber": 508,
      "##ät": 509,
      "##eg": 510,
      "##eben": 511,
      "einem": 512,
      "##scha": 513,
      "nach": 514,
      "mein": 515,
      "##ken": 516,
      "Ein": 517,
      "##ige": 518,
      "##ort": 519,
      "An": 520,
      "##ed": 521,
      "mach": 522,
      "wird": 523,
      "##ing": 524,
      "bei": 525,
      "etw": 526,
      "##aus": 527,
      "nur": 528,
      "sehr": 529,
      "##uch": 530,
      "##hnen": 531,
      "##os": 532,
      "Menschen": 533,
      "hier": 534,
      "##ischen": 535,
      "all": 536,
      "##ess": 537,
      "##ör": 538,
      "dar": 539,
      "##ech": 540,
      "##ibt": 541,
      "--": 542,
      "mich": 543,
      "st": 544,
      "##urch": 545,
      "##ff": 546,
      "##ot": 547,
      "##äch": 548,
      "gibt": 549,
      "##issen": 550,
      "##ze": 551,
      "Ge": 552,
      "dann": 553,
      "Un": 554,
      "wur": 555,
      "##ass": 556,
      "sp": 557,
      "##lau": 558,
      "also": 559,
      "##ab": 560,
      "##ill": 561,
      "##ffen": 562,
      "##eute": 563,
      "noch": 564,
      "##hal": 565,
      "##og": 566,
      "##bl": 567,
      "##ommen": 568,
      "##ang": 569,
      "##schaft": 570,
      "etwas": 571,
      "##ick": 572,
      "her": 573,
      "##mmer": 574,
      "Sp": 575,
      "##än": 576,
      "##ru": 577,
      "Welt": 578,
      "##tet": 579,
      "wei": 580,
      "sehen": 581,
      "vie": 582,
      "habe": 583,
      "Als": 584,
      "sa": 585,
      "dieser": 586,
      "mir": 587,
      "##ers": 588,
      "mehr": 589,
      "kl": 590,
      "##bei": 591,
      "##heit": 592,
      "##00": 593,
      "##ul": 594,
      "##hen": 595,
      "##ische": 596,
      "durch": 597,
      "##roß": 598,
      "##gt": 599,
      "sag": 600,
      "##op": 601,
      "Wenn": 602,
      "##lichen": 603,
      "##keit": 604,
      "##all": 605,
      "##etzt": 606,
      "Be": 607,
      "gen": 608,
      "viel": 609,
      "##acht": 610,
      "##mal": 611,
      "##tern": 612,
      "##ner": 613,
      "##ank": 614,
      "##rie": 615,
      "Au": 616,
      "Leben": 617,
      ".\"": 618,
      "##liche": 619,
      "##üs": 620,
      "##ent": 621,
      "alle": 622,
      "##ne": 623,
      "##uss": 624,
      "##her": 625,
      "ent": 626,
      "gan": 627,
      "##fach": 628,
      "##är": 629,
      "##klich": 630,
      "wurde": 631,
      "zum": 632,
      "geh": 633,
      "mö": 634,
      "##he": 635,
      "Zeit": 636,
      "##fü": 637,
      "wür": 638,
      "##ähr": 639,
      "Ihnen": 640,
      "##bst": 641,
      "##est": 642,
      "machen": 643,
      "unter": 644,
      "ges": 645,
      "##assen": 646,
      "groß": 647,
      "##oll": 648,
      "ste": 649,
      "Gesch": 650,
      "zwei": 651,
      "##end": 652,
      "##ungs": 653,
      "am": 654,
      "##ht": 655,
      "wirklich": 656,
      "ab": 657,
      "##fl": 658,
      "##for": 659,
      "##ob": 660,
      "einfach": 661,
      "immer": 662,
      "##ri": 663,
      "meine": 664,
      "##ad": 665,
      "##ekt": 666,
      "je": 667,
      "weil": 668,
      "##inge": 669,
      "##ndern": 670,
      "kon": 671,
      "##wer": 672,
      "##bar": 673,
      "tun": 674,
      "##ingen": 675,
      "Also": 676,
      "fü": 677,
      "##rück": 678,
      "##br": 679,
      "##mmt": 680,
      "##art": 681,
      "##nte": 682,
      "##aten": 683,
      "Was": 684,
      "##inder": 685,
      "neu": 686,
      "müs": 687,
      "Ihr": 688,
      "hatte": 689,
      "##inden": 690,
      "##ap": 691,
      "Re": 692,
      "unsere": 693,
      "##chte": 694,
      "bis": 695,
      "##ist": 696,
      "dieses": 697,
      "##ück": 698,
      "##ehmen": 699,
      "##iz": 700,
      "##elbst": 701,
      "##gel": 702,
      "##per": 703,
      "##lie": 704,
      "##eiten": 705,
      "keine": 706,
      "##leich": 707,
      "Leute": 708,
      "Gr": 709,
      "hin": 710,
      "ihre": 711,
      "##schie": 712,
      "##ntw": 713,
      "##ger": 714,
      "##ionen": 715,
      "wissen": 716,
      "##eln": 717,
      "##iger": 718,
      "##che": 719,
      "müssen": 720,
      "##stell": 721,
      "##glich": 722,
      "##unkt": 723,
      "Man": 724,
      "##hlen": 725,
      "##cht": 726,
      "##ah": 727,
      "soll": 728,
      "##omp": 729,
      "diesem": 730,
      "Art": 731,
      "waren": 732,
      "viele": 733,
      "sagte": 734,
      "So": 735,
      "##pt": 736,
      "Dinge": 737,
      "##ßen": 738,
      "##olog": 739,
      "dam": 740,
      "Ges": 741,
      "Wie": 742,
      "##nde": 743,
      "##rä": 744,
      "##itte": 745,
      "sagen": 746,
      "Zu": 747,
      "diesen": 748,
      "Jahren": 749,
      "##ke": 750,
      "##blem": 751,
      "weiter": 752,
      "Or": 753,
      "##gend": 754,
      "beg": 755,
      "re": 756,
      "lie": 757,
      "gew": 758,
      "bin": 759,
      "eines": 760,
      "Kon": 761,
      "##ild": 762,
      "##ammen": 763,
      "##rach": 764,
      "andere": 765,
      "##kommen": 766,
      "Vor": 767,
      "##äu": 768,
      "##ats": 769,
      "##ichtig": 770,
      "##einen": 771,
      "jetzt": 772,
      "##ität": 773,
      "##nis": 774,
      "anderen": 775,
      "zei": 776,
      "##unden": 777,
      "##im": 778,
      "wieder": 779,
      "ko": 780,
      "Bei": 781,
      "eigen": 782,
      "##ver": 783,
      "Der": 784,
      "##ichte": 785,
      "##lleicht": 786,
      "##angen": 787,
      "würde": 788,
      "Problem": 789,
      "##auf": 790,
      "glau": 791,
      "Kinder": 792,
      "##über": 793,
      "vers": 794,
      "Ch": 795,
      "##la": 796,
      "zur": 797,
      "alles": 798,
      "##zi": 799,
      "##pp": 800,
      "Dies": 801,
      "Aus": 802,
      "##echn": 803,
      "selbst": 804,
      "ar": 805,
      "nie": 806,
      "damit": 807,
      "du": 808,
      "wen": 809,
      "##yst": 810,
      "##ere": 811,
      "Mill": 812,
      "gem": 813,
      "##ert": 814,
      "##amen": 815,
      "##auen": 816,
      "##tes": 817,
      "##ant": 818,
      "geht": 819,
      "##under": 820,
      "Jahre": 821,
      "##ntwick": 822,
      "##ell": 823,
      "##geb": 824,
      "Auf": 825,
      "##ystem": 826,
      "Frau": 827,
      "##ler": 828,
      "##ast": 829,
      "ob": 830,
      "##tlich": 831,
      "##ale": 832,
      "##det": 833,
      "zurück": 834,
      "zw": 835,
      "##lt": 836,
      "gesch": 837,
      "muss": 838,
      "denn": 839,
      "##beit": 840,
      "##rö": 841,
      "zus": 842,
      "wel": 843,
      "ber": 844,
      "Um": 845,
      "##nten": 846,
      "##ragen": 847,
      "##pf": 848,
      "##spiel": 849,
      "##äre": 850,
      "##tz": 851,
      "gut": 852,
      "ger": 853,
      "##reu": 854,
      "##igkeit": 855,
      "##mer": 856,
      "Fl": 857,
      "schon": 858,
      "##ächlich": 859,
      "##ok": 860,
      "##ges": 861,
      "##zie": 862,
      "##änder": 863,
      "##zeu": 864,
      "heraus": 865,
      "dav": 866,
      "##aar": 867,
      "ganz": 868,
      "verst": 869,
      "##off": 870,
      "möchte": 871,
      "##we": 872,
      "##halten": 873,
      "Her": 874,
      "##zent": 875,
      "##stellen": 876,
      "ihnen": 877,
      "best": 878,
      "bes": 879,
      "##fahr": 880,
      "##ierte": 881,
      "##ahl": 882,
      "##ran": 883,
      "##du": 884,
      "vielleicht": 885,
      "Geh": 886,
      "Teil": 887,
      "Nun": 888,
      "##kl": 889,
      "##ationen": 890,
      "##ster": 891,
      "pass": 892,
      "zusammen": 893,
      "letz": 894,
      "Kl": 895,
      "##me": 896,
      "pro": 897,
      "Ide": 898,
      "##imm": 899,
      "br": 900,
      "brau": 901,
      "##ßer": 902,
      "##atsächlich": 903,
      "davon": 904,
      "Land": 905,
      "##alt": 906,
      "drei": 907,
      "##uchen": 908,
      "##ün": 909,
      "arbei": 910,
      "dort": 911,
      "Dank": 912,
      "Pl": 913,
      "##sam": 914,
      "Techn": 915,
      "##vor": 916,
      "Wissen": 917,
      "Grund": 918,
      "##alen": 919,
      "##fe": 920,
      "##rechen": 921,
      "Tag": 922,
      "##hne": 923,
      "##halb": 924,
      "Hier": 925,
      "##utz": 926,
      "gleich": 927,
      "heute": 928,
      "##itt": 929,
      "##ug": 930,
      "##änd": 931,
      "Geschichte": 932,
      "hatten": 933,
      "##asser": 934,
      "genau": 935,
      "##eld": 936,
      "verb": 937,
      "##atür": 938,
      "##kte": 939,
      "##att": 940,
      "##ichten": 941,
      "gel": 942,
      "##wo": 943,
      "Bild": 944,
      "##cken": 945,
      "##esen": 946,
      "##aut": 947,
      "##ater": 948,
      "##weise": 949,
      "##form": 950,
      "##inn": 951,
      "inter": 952,
      "For": 953,
      "bet": 954,
      "jed": 955,
      "kein": 956,
      "Nach": 957,
      "ihn": 958,
      "##mlich": 959,
      "Gen": 960,
      "könnte": 961,
      "##anden": 962,
      "Bl": 963,
      "ir": 964,
      "##ade": 965,
      "##aum": 966,
      "Arbeit": 967,
      "jem": 968,
      "Diese": 969,
      "##atz": 970,
      "wollen": 971,
      "Unter": 972,
      "##zä": 973,
      "##äd": 974,
      "##rage": 975,
      "##ologie": 976,
      "##ielen": 977,
      "##ennen": 978,
      "einige": 979,
      "##age": 980,
      "einz": 981,
      "##oren": 982,
      "Wei": 983,
      "##ud": 984,
      "##esser": 985,
      "paar": 986,
      "##schen": 987,
      "##ha": 988,
      "Ko": 989,
      "##utzen": 990,
      "##ine": 991,
      "meiner": 992,
      "woll": 993,
      "wurden": 994,
      "gehen": 995,
      "nun": 996,
      "##reich": 997,
      "wahr": 998,
      "##irn": 999,
      "Mo": 1000,
      "##lei": 1001,
      "darüber": 1002,
      "##rag": 1003,
      "verw": 1004,
      "ben": 1005,
      "##unktion": 1006,
      "werde": 1007,
      "?\"": 1008,
      "##für": 1009,
      "##war": 1010,
      "##fr": 1011,
      "##ak": 1012,
      "##hm": 1013,
      "tatsächlich": 1014,
      "##weg": 1015,
      "sondern": 1016,
      "Se": 1017,
      "Geb": 1018,
      "Da": 1019,
      "grö": 1020,
      "##eisten": 1021,
      "##schieden": 1022,
      "besch": 1023,
      "Beispiel": 1024,
      "verl": 1025,
      "##gar": 1026,
      "##atur": 1027,
      "##ache": 1028,
      "zie": 1029,
      "##ativ": 1030,
      "weiß": 1031,
      "##ährend": 1032,
      "##fol": 1033,
      "gab": 1034,
      "##atürlich": 1035,
      "gu": 1036,
      "unserer": 1037,
      "##ett": 1038,
      "##alten": 1039,
      "Ab": 1040,
      "Mit": 1041,
      "##hren": 1042,
      "bek": 1043,
      "##ander": 1044,
      "wäre": 1045,
      "leben": 1046,
      "##ss": 1047,
      "Al": 1048,
      "Ste": 1049,
      "Aut": 1050,
      "##akt": 1051,
      "neue": 1052,
      "bede": 1053,
      "##gef": 1054,
      "seine": 1055,
      "vom": 1056,
      "##dem": 1057,
      "Wasser": 1058,
      "##anz": 1059,
      "denke": 1060,
      "hät": 1061,
      "gef": 1062,
      "Wer": 1063,
      "000": 1064,
      "dazu": 1065,
      "le": 1066,
      "Ent": 1067,
      "##schein": 1068,
      "##eite": 1069,
      "##los": 1070,
      "irgend": 1071,
      "##hem": 1072,
      "lang": 1073,
      "kommen": 1074,
      "Des": 1075,
      "##achen": 1076,
      "will": 1077,
      "##od": 1078,
      "19": 1079,
      "finden": 1080,
      "##ite": 1081,
      "##achte": 1082,
      "##öglich": 1083,
      "##eid": 1084,
      "Lebens": 1085,
      "20": 1086,
      "denken": 1087,
      "entwick": 1088,
      "Hand": 1089,
      "hei": 1090,
      "##pro": 1091,
      "##gie": 1092,
      "##ittel": 1093,
      "sogar": 1094,
      "##ma": 1095,
      "denen": 1096,
      "macht": 1097,
      "einmal": 1098,
      "gemacht": 1099,
      "Im": 1100,
      "wichtig": 1101,
      "##ult": 1102,
      "zwischen": 1103,
      "##ierung": 1104,
      "##agen": 1105,
      "gegen": 1106,
      "Über": 1107,
      "gerade": 1108,
      "ex": 1109,
      "Ne": 1110,
      "Mar": 1111,
      "interess": 1112,
      "##geben": 1113,
      "funktion": 1114,
      "Frauen": 1115,
      "glaube": 1116,
      "Freu": 1117,
      "besser": 1118,
      "##ften": 1119,
      "##erson": 1120,
      "Frage": 1121,
      "geben": 1122,
      "##eiden": 1123,
      "Gehirn": 1124,
      "kommt": 1125,
      "erzä": 1126,
      "ohne": 1127,
      "##rank": 1128,
      "erst": 1129,
      "Mal": 1130,
      "##ue": 1131,
      "##affen": 1132,
      "##ika": 1133,
      "##äh": 1134,
      "##gehen": 1135,
      "##keiten": 1136,
      "Reg": 1137,
      "##lück": 1138,
      "näch": 1139,
      "mus": 1140,
      "##gew": 1141,
      "##ust": 1142,
      "Ind": 1143,
      "nichts": 1144,
      "bedeu": 1145,
      "##gan": 1146,
      "jeder": 1147,
      "ihren": 1148,
      "##ic": 1149,
      "##tschaft": 1150,
      "Daten": 1151,
      "zeigen": 1152,
      "dafür": 1153,
      "würden": 1154,
      "##ys": 1155,
      "##eist": 1156,
      "letzten": 1157,
      "War": 1158,
      "verschieden": 1159,
      "##echt": 1160,
      "##ören": 1161,
      "##hin": 1162,
      "sieht": 1163,
      "Ex": 1164,
      "##ate": 1165,
      "##fer": 1166,
      "konnte": 1167,
      "Med": 1168,
      "##zeit": 1169,
      "meisten": 1170,
      "passiert": 1171,
      "ersten": 1172,
      "verstehen": 1173,
      "Prozent": 1174,
      "Wo": 1175,
      "##ikan": 1176,
      "Eine": 1177,
      "##enden": 1178,
      "##aufen": 1179,
      "Mon": 1180,
      "Millionen": 1181,
      "##stand": 1182,
      "##nell": 1183,
      "mal": 1184,
      "ind": 1185,
      "##etzen": 1186,
      "##bs": 1187,
      "##immt": 1188,
      "##ßt": 1189,
      "Ihre": 1190,
      "Mus": 1191,
      "Ph": 1192,
      "während": 1193,
      "schw": 1194,
      "etwa": 1195,
      "##ischer": 1196,
      "daran": 1197,
      "##sel": 1198,
      "##ändern": 1199,
      "Me": 1200,
      "##ingt": 1201,
      "##rupp": 1202,
      "##iele": 1203,
      "##ay": 1204,
      "lassen": 1205,
      "warum": 1206,
      "##ße": 1207,
      "##gr": 1208,
      "sollte": 1209,
      "10": 1210,
      "##gesch": 1211,
      "We": 1212,
      "##ös": 1213,
      "get": 1214,
      "##pl": 1215,
      "##ivers": 1216,
      "##teil": 1217,
      "##ange": 1218,
      "erste": 1219,
      "natürlich": 1220,
      "sollten": 1221,
      "mensch": 1222,
      "##agt": 1223,
      "Idee": 1224,
      "Ger": 1225,
      "Geld": 1226,
      "##erst": 1227,
      "##essen": 1228,
      "##iere": 1229,
      "##ign": 1230,
      "##ogen": 1231,
      "##üt": 1232,
      "##ord": 1233,
      "##stellt": 1234,
      "##yp": 1235,
      "sicher": 1236,
      "##jekt": 1237,
      "##ört": 1238,
      "##ucht": 1239,
      "meinen": 1240,
      "meinem": 1241,
      "könnten": 1242,
      "##chten": 1243,
      "Person": 1244,
      "Weg": 1245,
      "komp": 1246,
      "##innen": 1247,
      "dr": 1248,
      "schnell": 1249,
      "##ompu": 1250,
      "##igt": 1251,
      "##fte": 1252,
      "##cher": 1253,
      "ja": 1254,
      "##ce": 1255,
      "wollte": 1256,
      "System": 1257,
      "##ark": 1258,
      "Raum": 1259,
      "große": 1260,
      "geb": 1261,
      "Stra": 1262,
      "Ber": 1263,
      "##aupt": 1264,
      "##ält": 1265,
      "##ia": 1266,
      "klein": 1267,
      "##schied": 1268,
      "bekommen": 1269,
      "##ramm": 1270,
      "Doll": 1271,
      "##licher": 1272,
      "sprechen": 1273,
      "##ären": 1274,
      "##ide": 1275,
      "ganze": 1276,
      "jemand": 1277,
      "##emein": 1278,
      "##örper": 1279,
      "##llt": 1280,
      "ins": 1281,
      "Inform": 1282,
      "ziemlich": 1283,
      "Dollar": 1284,
      "##adt": 1285,
      "kam": 1286,
      "##hrt": 1287,
      "##ckt": 1288,
      "ihrer": 1289,
      "##qu": 1290,
      "##ktiv": 1291,
      "Bo": 1292,
      "sagt": 1293,
      "Univers": 1294,
      "arbeiten": 1295,
      "##schl": 1296,
      "##als": 1297,
      "Compu": 1298,
      "dabei": 1299,
      "##wir": 1300,
      "##lung": 1301,
      "ging": 1302,
      "##ernen": 1303,
      "##ierten": 1304,
      "##eht": 1305,
      "Plan": 1306,
      "##mus": 1307,
      "##twort": 1308,
      "sol": 1309,
      "Wissenschaft": 1310,
      "##onder": 1311,
      "200": 1312,
      "##äng": 1313,
      "##io": 1314,
      "##kun": 1315,
      "##olut": 1316,
      "darauf": 1317,
      "##eich": 1318,
      "Ja": 1319,
      "##sicht": 1320,
      "Ro": 1321,
      "nehmen": 1322,
      "##utter": 1323,
      "##laub": 1324,
      "##scheinlich": 1325,
      "Mann": 1326,
      "##ktur": 1327,
      "##richt": 1328,
      "Ener": 1329,
      "##äter": 1330,
      "##amil": 1331,
      "Kind": 1332,
      "##iss": 1333,
      "weniger": 1334,
      "Ende": 1335,
      "##finden": 1336,
      "##reiben": 1337,
      "##wie": 1338,
      "Mein": 1339,
      "##amm": 1340,
      "##urz": 1341,
      "doch": 1342,
      "bereit": 1343,
      "##itz": 1344,
      "Technologie": 1345,
      "##olit": 1346,
      "##fall": 1347,
      "##id": 1348,
      "Verb": 1349,
      "kleinen": 1350,
      "vier": 1351,
      "US": 1352,
      "El": 1353,
      "Te": 1354,
      "##enz": 1355,
      "##ker": 1356,
      "##ele": 1357,
      "##str": 1358,
      "\".": 1359,
      "Min": 1360,
      "##orden": 1361,
      "##fühl": 1362,
      "ung": 1363,
      "##kunft": 1364,
      "Men": 1365,
      "Rei": 1366,
      "##ng": 1367,
      "Schl": 1368,
      "Computer": 1369,
      "Dann": 1370,
      "##annt": 1371,
      "All": 1372,
      "##arbei": 1373,
      "##imen": 1374,
      "Famil": 1375,
      "dir": 1376,
      "Energie": 1377,
      "Sache": 1378,
      "##ennt": 1379,
      "Denn": 1380,
      "##rat": 1381,
      "bedeutet": 1382,
      "##oten": 1383,
      "##isten": 1384,
      "##sst": 1385,
      "unseren": 1386,
      "##orgen": 1387,
      "beh": 1388,
      "##nah": 1389,
      "##ganis": 1390,
      "Lie": 1391,
      "##sehen": 1392,
      "##ial": 1393,
      "##äl": 1394,
      "Möglich": 1395,
      "##ho": 1396,
      "##asch": 1397,
      "Kre": 1398,
      "seit": 1399,
      "##äft": 1400,
      "##ald": 1401,
      "welche": 1402,
      "brauchen": 1403,
      "##tete": 1404,
      "Ha": 1405,
      "größ": 1406,
      "Am": 1407,
      "Warum": 1408,
      "Mom": 1409,
      "Seite": 1410,
      "dachte": 1411,
      "Vers": 1412,
      "eigentlich": 1413,
      "bringen": 1414,
      "##usst": 1415,
      "Inter": 1416,
      "Män": 1417,
      "##..": 1418,
      "kleine": 1419,
      "gesehen": 1420,
      "ihm": 1421,
      "##raft": 1422,
      "##ruck": 1423,
      "Fall": 1424,
      "möglich": 1425,
      "Gew": 1426,
      "Groß": 1427,
      "##lo": 1428,
      "##halt": 1429,
      "##ilder": 1430,
      "##rin": 1431,
      "gest": 1432,
      "##ition": 1433,
      "wenig": 1434,
      "##ive": 1435,
      "großen": 1436,
      "##rad": 1437,
      "Schu": 1438,
      "Spiel": 1439,
      "Je": 1440,
      "Stadt": 1441,
      "##undert": 1442,
      "Kar": 1443,
      "Ma": 1444,
      "##unter": 1445,
      "##ga": 1446,
      "##achsen": 1447,
      "Du": 1448,
      "jeden": 1449,
      "##ständ": 1450,
      "De": 1451,
      "Weise": 1452,
      "ganzen": 1453,
      "##achten": 1454,
      "außer": 1455,
      "##uten": 1456,
      "##alis": 1457,
      "##kten": 1458,
      "\",": 1459,
      "Grupp": 1460,
      "Woch": 1461,
      "##iges": 1462,
      "...": 1463,
      "##icher": 1464,
      "Fil": 1465,
      "Licht": 1466,
      "##raf": 1467,
      "##net": 1468,
      "##opf": 1469,
      "fin": 1470,
      "schle": 1471,
      "##wegen": 1472,
      "Körper": 1473,
      "versuchen": 1474,
      "Schw": 1475,
      "hätte": 1476,
      "Intern": 1477,
      "##folg": 1478,
      "später": 1479,
      "Entwick": 1480,
      "al": 1481,
      "##nung": 1482,
      "##ard": 1483,
      "##tro": 1484,
      "keinen": 1485,
      "##hlt": 1486,
      "vielen": 1487,
      "voll": 1488,
      "Buch": 1489,
      "##schaften": 1490,
      "gesagt": 1491,
      "fün": 1492,
      "hoch": 1493,
      "##land": 1494,
      "Zukunft": 1495,
      "Ort": 1496,
      "Den": 1497,
      "Menge": 1498,
      "##our": 1499,
      "##leben": 1500,
      "Gemein": 1501,
      "glauben": 1502,
      "##stellung": 1503,
      "##rieben": 1504,
      "##ormal": 1505,
      "##ultur": 1506,
      "##lex": 1507,
      "gern": 1508,
      "##ph": 1509,
      "##no": 1510,
      "Stud": 1511,
      "Danke": 1512,
      "##undheit": 1513,
      "Ged": 1514,
      "##denken": 1515,
      "verm": 1516,
      "Vielen": 1517,
      "##fft": 1518,
      "beim": 1519,
      "Untern": 1520,
      "Augen": 1521,
      "unglaub": 1522,
      "##wohl": 1523,
      "##ütz": 1524,
      "##eten": 1525,
      "##ernt": 1526,
      "##pr": 1527,
      "sei": 1528,
      "##iar": 1529,
      "##gang": 1530,
      "##legen": 1531,
      "stellen": 1532,
      "sozi": 1533,
      "##zeug": 1534,
      "##alität": 1535,
      "Moment": 1536,
      "Pat": 1537,
      "##ies": 1538,
      "Qu": 1539,
      "konnten": 1540,
      "lernen": 1541,
      "##onnen": 1542,
      "##ausen": 1543,
      "jedes": 1544,
      "##ip": 1545,
      "##ruktur": 1546,
      "besonder": 1547,
      "Jetzt": 1548,
      "fest": 1549,
      "eigenen": 1550,
      "##fahren": 1551,
      "heißt": 1552,
      "##echs": 1553,
      "fünf": 1554,
      "##nden": 1555,
      "##lekt": 1556,
      "100": 1557,
      "Natur": 1558,
      "##gramm": 1559,
      "##ließ": 1560,
      "Afr": 1561,
      "##nisse": 1562,
      "funktioniert": 1563,
      "##fin": 1564,
      "##reis": 1565,
      "##elfen": 1566,
      "##öl": 1567,
      "oft": 1568,
      "versch": 1569,
      "##bringen": 1570,
      "wunder": 1571,
      "##eilen": 1572,
      "indem": 1573,
      "##asse": 1574,
      "Kam": 1575,
      "fast": 1576,
      "Sprach": 1577,
      "schaffen": 1578,
      "Mutter": 1579,
      "##ib": 1580,
      "Probleme": 1581,
      "Milliar": 1582,
      "##zeich": 1583,
      "##dr": 1584,
      "Produ": 1585,
      "At": 1586,
      "##inner": 1587,
      "Schul": 1588,
      "##hle": 1589,
      "Le": 1590,
      "##eile": 1591,
      "##ause": 1592,
      "offen": 1593,
      "##allen": 1594,
      "##itten": 1595,
      "##ritt": 1596,
      "schwer": 1597,
      "gute": 1598,
      "nä": 1599,
      "Musik": 1600,
      "##reichen": 1601,
      "Internet": 1602,
      "##ief": 1603,
      "##kel": 1604,
      "##satz": 1605,
      "Gesundheit": 1606,
      "Br": 1607,
      "##stoff": 1608,
      "##ott": 1609,
      "gl": 1610,
      "Erde": 1611,
      "Ob": 1612,
      "##zahl": 1613,
      "Vide": 1614,
      "nutzen": 1615,
      "##ium": 1616,
      "##gefähr": 1617,
      "##ellschaft": 1618,
      "Haus": 1619,
      "Wahr": 1620,
      "Co": 1621,
      "seiner": 1622,
      "##forder": 1623,
      "##unde": 1624,
      "Lehr": 1625,
      "##schn": 1626,
      "Ang": 1627,
      "##euten": 1628,
      "##volut": 1629,
      "##fä": 1630,
      "Ok": 1631,
      "##eim": 1632,
      "weg": 1633,
      "aller": 1634,
      "helfen": 1635,
      "wahrscheinlich": 1636,
      "##so": 1637,
      "##isches": 1638,
      "anders": 1639,
      "Met": 1640,
      "##erv": 1641,
      "Sta": 1642,
      "sah": 1643,
      "##nehmen": 1644,
      "##kon": 1645,
      "USA": 1646,
      "Amer": 1647,
      "Stu": 1648,
      "##ahlen": 1649,
      "herum": 1650,
      "50": 1651,
      "lange": 1652,
      "##ellen": 1653,
      "##ünst": 1654,
      "allen": 1655,
      "weit": 1656,
      "fol": 1657,
      "##chmal": 1658,
      "Uns": 1659,
      "##öt": 1660,
      "ange": 1661,
      "schön": 1662,
      "Dar": 1663,
      "begann": 1664,
      "15": 1665,
      "##heiten": 1666,
      "##ED": 1667,
      "neuen": 1668,
      "##dent": 1669,
      "##volution": 1670,
      "##ko": 1671,
      "##unst": 1672,
      "frü": 1673,
      "##wusst": 1674,
      "Form": 1675,
      "##hol": 1676,
      "Design": 1677,
      "unserem": 1678,
      "nächsten": 1679,
      "##welt": 1680,
      "verk": 1681,
      "Entsch": 1682,
      "Bilder": 1683,
      "Nicht": 1684,
      "genug": 1685,
      "30": 1686,
      "##ina": 1687,
      "Gegen": 1688,
      "zeigt": 1689,
      "Projekt": 1690,
      "klar": 1691,
      "erzählen": 1692,
      "##mp": 1693,
      "schl": 1694,
      "##auer": 1695,
      "##rem": 1696,
      "##gleich": 1697,
      "richtig": 1698,
      "##zess": 1699,
      "##raum": 1700,
      "Rob": 1701,
      "ho": 1702,
      "##rieg": 1703,
      "Wor": 1704,
      "kennen": 1705,
      "Patien": 1706,
      "Bür": 1707,
      "##uft": 1708,
      "ungefähr": 1709,
      "##umen": 1710,
      "New": 1711,
      "Kunst": 1712,
      "pl": 1713,
      "jede": 1714,
      "##eut": 1715,
      "##ielt": 1716,
      "betrach": 1717,
      "Selbst": 1718,
      "nah": 1719,
      "gemein": 1720,
      "we": 1721,
      "Kopf": 1722,
      "##ösen": 1723,
      "star": 1724,
      "##itu": 1725,
      "##kennen": 1726,
      "##zieh": 1727,
      "##euer": 1728,
      "##reffen": 1729,
      "Vie": 1730,
      "Forsch": 1731,
      "normal": 1732,
      "wus": 1733,
      "##gangen": 1734,
      "Schule": 1735,
      "Zus": 1736,
      "wicht": 1737,
      "bauen": 1738,
      "hö": 1739,
      "Fäh": 1740,
      "Mater": 1741,
      "##itzen": 1742,
      "bisschen": 1743,
      "##liches": 1744,
      "Für": 1745,
      "Su": 1746,
      "fal": 1747,
      "bevor": 1748,
      "##iker": 1749,
      "Ideen": 1750,
      "blei": 1751,
      "liegt": 1752,
      "Leuten": 1753,
      "##mmun": 1754,
      "Planeten": 1755,
      "Unternehmen": 1756,
      "Gl": 1757,
      "##ens": 1758,
      "##bracht": 1759,
      "Fot": 1760,
      "Hin": 1761,
      "##ffe": 1762,
      "Pu": 1763,
      "kurz": 1764,
      "##llig": 1765,
      "seinen": 1766,
      "recht": 1767,
      "##aden": 1768,
      "##ädchen": 1769,
      "Bed": 1770,
      "gar": 1771,
      "##glichen": 1772,
      "verändern": 1773,
      "##utzt": 1774,
      "kompl": 1775,
      "The": 1776,
      "##äche": 1777,
      "Informationen": 1778,
      "Sy": 1779,
      "TED": 1780,
      "##asst": 1781,
      "veränder": 1782,
      "Erfahr": 1783,
      "sagten": 1784,
      "Mode": 1785,
      "Netz": 1786,
      "Vort": 1787,
      "##onen": 1788,
      "ern": 1789,
      "##igkeiten": 1790,
      "überall": 1791,
      "Meine": 1792,
      "##eren": 1793,
      "##elten": 1794,
      "Bü": 1795,
      "##ren": 1796,
      "Punkt": 1797,
      "stehen": 1798,
      "##anken": 1799,
      "##sche": 1800,
      "Milliarden": 1801,
      "##sy": 1802,
      "verd": 1803,
      "Bi": 1804,
      "inner": 1805,
      "Wirtschaft": 1806,
      "Fragen": 1807,
      "##ieht": 1808,
      "Krank": 1809,
      "##anzen": 1810,
      "darum": 1811,
      "Männer": 1812,
      "Arten": 1813,
      "versuch": 1814,
      "##bo": 1815,
      "erkl": 1816,
      "Exper": 1817,
      "Lin": 1818,
      "Mädchen": 1819,
      "erh": 1820,
      "erm": 1821,
      "Antwort": 1822,
      "eben": 1823,
      "##rieb": 1824,
      "##mpf": 1825,
      "gehört": 1826,
      "ihrem": 1827,
      "musste": 1828,
      "##ks": 1829,
      "##ismus": 1830,
      "##lagen": 1831,
      "Zwei": 1832,
      "nennen": 1833,
      "ausge": 1834,
      "Bet": 1835,
      "##änger": 1836,
      "Gebäu": 1837,
      "dich": 1838,
      "Afrika": 1839,
      "Kön": 1840,
      "##lichkeit": 1841,
      "##zept": 1842,
      "Geschichten": 1843,
      "reden": 1844,
      "anf": 1845,
      "##ienen": 1846,
      "hinter": 1847,
      "Glück": 1848,
      "Universum": 1849,
      "##ände": 1850,
      "##izin": 1851,
      "bem": 1852,
      "bereits": 1853,
      "großart": 1854,
      "schwier": 1855,
      "##ätz": 1856,
      "Zusammen": 1857,
      "##immen": 1858,
      "##gung": 1859,
      "Richt": 1860,
      "Dieses": 1861,
      "euch": 1862,
      "Lös": 1863,
      "##mittel": 1864,
      "##andel": 1865,
      "Jahrh": 1866,
      "##öhn": 1867,
      "##cke": 1868,
      "##einander": 1869,
      "entwickelt": 1870,
      "##sk": 1871,
      "erkennen": 1872,
      "Nein": 1873,
      "fragen": 1874,
      "hal": 1875,
      "##ffent": 1876,
      "##je": 1877,
      "Verhalten": 1878,
      "Minuten": 1879,
      "##pen": 1880,
      "anderes": 1881,
      "##amens": 1882,
      "de": 1883,
      "hätten": 1884,
      "Film": 1885,
      "##voll": 1886,
      "verschiedene": 1887,
      "##licht": 1888,
      "besonders": 1889,
      "##mand": 1890,
      "entw": 1891,
      "frag": 1892,
      "##zentr": 1893,
      "Auto": 1894,
      "spielen": 1895,
      "benutzen": 1896,
      "##twor": 1897,
      "namens": 1898,
      "oben": 1899,
      "##des": 1900,
      "##annte": 1901,
      "Kor": 1902,
      "Beweg": 1903,
      "entde": 1904,
      "Familie": 1905,
      "Gruppe": 1906,
      "Macht": 1907,
      "halten": 1908,
      "Gesellschaft": 1909,
      "gerne": 1910,
      "Ant": 1911,
      "##zus": 1912,
      "##ilfe": 1913,
      "Them": 1914,
      "ähn": 1915,
      "##if": 1916,
      "##fang": 1917,
      "##ts": 1918,
      "erreichen": 1919,
      "seinem": 1920,
      "entsch": 1921,
      "##ome": 1922,
      "steht": 1923,
      "Fir": 1924,
      "Grü": 1925,
      "hören": 1926,
      "machte": 1927,
      "Video": 1928,
      "Robo": 1929,
      "Oder": 1930,
      "eins": 1931,
      "Beg": 1932,
      "Fol": 1933,
      "##zei": 1934,
      "Indien": 1935,
      "Entscheid": 1936,
      "Dr": 1937,
      "Weil": 1938,
      "na": 1939,
      "Flug": 1940,
      "##aun": 1941,
      "##werk": 1942,
      "Herz": 1943,
      "Sü": 1944,
      "Dem": 1945,
      "##richten": 1946,
      "Organis": 1947,
      "##ahn": 1948,
      "Stück": 1949,
      "##grund": 1950,
      "##indung": 1951,
      "##inen": 1952,
      "##anten": 1953,
      "##rom": 1954,
      "darin": 1955,
      "Vielleicht": 1956,
      "##akter": 1957,
      "glob": 1958,
      "Patienten": 1959,
      "Far": 1960,
      "Ur": 1961,
      "##mo": 1962,
      "Angst": 1963,
      "Di": 1964,
      "Doch": 1965,
      "##unge": 1966,
      "##gestellt": 1967,
      "statt": 1968,
      "wohl": 1969,
      "##inde": 1970,
      "beein": 1971,
      "Ergeb": 1972,
      "jedem": 1973,
      "##ließlich": 1974,
      "##ölker": 1975,
      "Durch": 1976,
      "##err": 1977,
      "erf": 1978,
      "braucht": 1979,
      "Beh": 1980,
      "##etten": 1981,
      "bef": 1982,
      "Fü": 1983,
      "Stunden": 1984,
      "Luft": 1985,
      "##kehr": 1986,
      "anzu": 1987,
      "Masch": 1988,
      "bestimm": 1989,
      "##deut": 1990,
      "##ffentlich": 1991,
      "Sprache": 1992,
      "##ings": 1993,
      "##ächt": 1994,
      "##ützen": 1995,
      "Regierung": 1996,
      "or": 1997,
      "##ase": 1998,
      "Arm": 1999,
      "Kultur": 2000,
      "sechs": 2001,
      "gesam": 2002,
      "glück": 2003,
      "##bild": 2004,
      "##endet": 2005,
      "##bare": 2006,
      "##dern": 2007,
      "##ereich": 2008,
      "##ktion": 2009,
      "##ume": 2010,
      "##urs": 2011,
      "##führt": 2012,
      "Jahrhundert": 2013,
      "Po": 2014,
      "vorstellen": 2015,
      "Gefühl": 2016,
      "##ikro": 2017,
      "flie": 2018,
      "mag": 2019,
      "Gott": 2020,
      "Okay": 2021,
      "tro": 2022,
      "##ider": 2023,
      "##iken": 2024,
      "Bau": 2025,
      "##mals": 2026,
      "größer": 2027,
      "##sych": 2028,
      "irgendwie": 2029,
      "Wort": 2030,
      "##ote": 2031,
      "einigen": 2032,
      "bewegen": 2033,
      "Kn": 2034,
      "##zug": 2035,
      "Freund": 2036,
      "##ante": 2037,
      "Möglichkeit": 2038,
      "##th": 2039,
      "##ock": 2040,
      "##ehe": 2041,
      "##omen": 2042,
      "##uelle": 2043,
      "Vater": 2044,
      "richt": 2045,
      "##punkt": 2046,
      "abs": 2047,
      "Eigen": 2048,
      "##ezie": 2049,
      "erhalten": 2050,
      "ries": 2051,
      "##igung": 2052,
      "Na": 2053,
      "##genommen": 2054,
      "manchmal": 2055,
      "Part": 2056,
      "##äten": 2057,
      "##geln": 2058,
      "Gener": 2059,
      "##icherheit": 2060,
      "Veränder": 2061,
      "verschiedenen": 2062,
      "Roboter": 2063,
      "grü": 2064,
      "##ette": 2065,
      "entwickeln": 2066,
      "##uster": 2067,
      "Rück": 2068,
      "##system": 2069,
      "##eig": 2070,
      "##annen": 2071,
      "erw": 2072,
      "stell": 2073,
      "Krebs": 2074,
      "Städ": 2075,
      "Yor": 2076,
      "##uß": 2077,
      "##esse": 2078,
      "Bezieh": 2079,
      "##ässt": 2080,
      "Fahr": 2081,
      "Sk": 2082,
      "produ": 2083,
      "alt": 2084,
      "##zieren": 2085,
      "führen": 2086,
      "Bereich": 2087,
      "ändern": 2088,
      "##ont": 2089,
      "##urop": 2090,
      "##stehen": 2091,
      "beiden": 2092,
      "Neu": 2093,
      "##ure": 2094,
      "##okrat": 2095,
      "wollten": 2096,
      "drau": 2097,
      "##elle": 2098,
      "##reten": 2099,
      "##ersön": 2100,
      "##zeugen": 2101,
      "Hause": 2102,
      "Sol": 2103,
      "##bte": 2104,
      "einzige": 2105,
      "##haupt": 2106,
      "auss": 2107,
      "##vest": 2108,
      "##stens": 2109,
      "Sachen": 2110,
      "Eltern": 2111,
      "bemer": 2112,
      "Komp": 2113,
      "##ohn": 2114,
      "##kü": 2115,
      "erk": 2116,
      "##trau": 2117,
      "##sw": 2118,
      "nämlich": 2119,
      "frei": 2120,
      "##häng": 2121,
      "verwenden": 2122,
      "##nor": 2123,
      "##blik": 2124,
      "Eng": 2125,
      "per": 2126,
      "sage": 2127,
      "Meer": 2128,
      "Sinn": 2129,
      "eher": 2130,
      "einzel": 2131,
      "##lossen": 2132,
      "##isk": 2133,
      "unglaublich": 2134,
      "innerhalb": 2135,
      "##erweise": 2136,
      "Heraus": 2137,
      "##gal": 2138,
      "##zustellen": 2139,
      "Gesicht": 2140,
      "Krieg": 2141,
      "##zt": 2142,
      "##igten": 2143,
      "unterschied": 2144,
      "Gebäude": 2145,
      "Hö": 2146,
      "Pol": 2147,
      "##zin": 2148,
      "##hlte": 2149,
      "##teten": 2150,
      "China": 2151,
      "menschlichen": 2152,
      "verändert": 2153,
      "fand": 2154,
      "Dieser": 2155,
      "welch": 2156,
      "brach": 2157,
      "wegen": 2158,
      "los": 2159,
      "##erk": 2160,
      "Par": 2161,
      "Gleich": 2162,
      "besten": 2163,
      "Arch": 2164,
      "##one": 2165,
      "##mme": 2166,
      "beginnen": 2167,
      "Lab": 2168,
      "hand": 2169,
      "##ustrie": 2170,
      "##get": 2171,
      "##führ": 2172,
      "40": 2173,
      "Kindern": 2174,
      "Aufga": 2175,
      "Werk": 2176,
      "bel": 2177,
      "##reifen": 2178,
      "##icken": 2179,
      "##enzen": 2180,
      "for": 2181,
      "Länder": 2182,
      "##sent": 2183,
      "Programm": 2184,
      "ansch": 2185,
      "##ative": 2186,
      "##tem": 2187,
      "Str": 2188,
      "überhaupt": 2189,
      "##führen": 2190,
      "Grö": 2191,
      "Umwelt": 2192,
      "Wochen": 2193,
      "Ziel": 2194,
      "##erikan": 2195,
      "##ehn": 2196,
      "Nu": 2197,
      "beob": 2198,
      "##hemat": 2199,
      "Entwicklung": 2200,
      "getan": 2201,
      "unbe": 2202,
      "Mat": 2203,
      "##denten": 2204,
      "##ffekt": 2205,
      "Stellen": 2206,
      "18": 2207,
      "Bab": 2208,
      "Material": 2209,
      "Herausforder": 2210,
      "##eint": 2211,
      "Prozess": 2212,
      "treffen": 2213,
      "##völker": 2214,
      "ersch": 2215,
      "Ober": 2216,
      "Inst": 2217,
      "##ivi": 2218,
      "Bes": 2219,
      "Lehrer": 2220,
      "Chr": 2221,
      "##olle": 2222,
      "##druck": 2223,
      "allem": 2224,
      "zwar": 2225,
      "##nov": 2226,
      "##ack": 2227,
      "schauen": 2228,
      "##auso": 2229,
      "##riff": 2230,
      "gleichen": 2231,
      "versucht": 2232,
      "Li": 2233,
      "Lage": 2234,
      "bl": 2235,
      "gr": 2236,
      "##gte": 2237,
      "##ans": 2238,
      "Publik": 2239,
      "Nacht": 2240,
      "Oh": 2241,
      "Rest": 2242,
      "jen": 2243,
      "Anfang": 2244,
      "Prä": 2245,
      "Struktur": 2246,
      "polit": 2247,
      "##wert": 2248,
      "Tiere": 2249,
      "##äus": 2250,
      "meines": 2251,
      "weltw": 2252,
      "##schnitt": 2253,
      "Erfahrung": 2254,
      "Zum": 2255,
      "##wär": 2256,
      "##arten": 2257,
      "Pap": 2258,
      "##han": 2259,
      "##ument": 2260,
      "##ient": 2261,
      "Tod": 2262,
      "mo": 2263,
      "##haus": 2264,
      "##achst": 2265,
      "##enne": 2266,
      "##ziehen": 2267,
      "Kap": 2268,
      "Son": 2269,
      "##gende": 2270,
      "kamen": 2271,
      "##zellen": 2272,
      "Tier": 2273,
      "Freunde": 2274,
      "##son": 2275,
      "##fel": 2276,
      "Verein": 2277,
      "12": 2278,
      "##andeln": 2279,
      "##ängt": 2280,
      "lin": 2281,
      "##orie": 2282,
      "##itze": 2283,
      "Publikum": 2284,
      "Dam": 2285,
      "Frei": 2286,
      "Sicherheit": 2287,
      "ster": 2288,
      "##gem": 2289,
      "##elbe": 2290,
      "Essen": 2291,
      "##uren": 2292,
      "##ager": 2293,
      "##ächst": 2294,
      "##entr": 2295,
      "Geschäft": 2296,
      "Dingen": 2297,
      "Mittel": 2298,
      "vö": 2299,
      "entf": 2300,
      "weitere": 2301,
      "##innern": 2302,
      "nächste": 2303,
      "##ute": 2304,
      "##itiv": 2305,
      "##elig": 2306,
      "##ranken": 2307,
      "Tages": 2308,
      "Denken": 2309,
      "Experimen": 2310,
      "Situ": 2311,
      "##arbeit": 2312,
      "##fläche": 2313,
      "##rim": 2314,
      "DN": 2315,
      "Mikro": 2316,
      "##anach": 2317,
      "##schaffen": 2318,
      "fühlen": 2319,
      "##nahme": 2320,
      "wusste": 2321,
      "##baren": 2322,
      "niemand": 2323,
      "Res": 2324,
      "##ehl": 2325,
      "##achstum": 2326,
      "##ötz": 2327,
      "##ransp": 2328,
      "beko": 2329,
      "##yn": 2330,
      "##antwort": 2331,
      "Grunde": 2332,
      "mussten": 2333,
      "Haupt": 2334,
      "tut": 2335,
      "erre": 2336,
      "verh": 2337,
      "##annten": 2338,
      "##ragt": 2339,
      "##falls": 2340,
      "York": 2341,
      "##lligen": 2342,
      "##ala": 2343,
      "Klim": 2344,
      "Unterschied": 2345,
      "Ist": 2346,
      "Pf": 2347,
      "##iet": 2348,
      "leicht": 2349,
      "Verl": 2350,
      "unters": 2351,
      "falsch": 2352,
      "##ende": 2353,
      "##ehm": 2354,
      "##rieden": 2355,
      "##ow": 2356,
      "Typ": 2357,
      "##ations": 2358,
      "exist": 2359,
      "solche": 2360,
      "Kont": 2361,
      "##uellen": 2362,
      "Fern": 2363,
      "##uer": 2364,
      "menschliche": 2365,
      "Ander": 2366,
      "worden": 2367,
      "##aschen": 2368,
      "erwar": 2369,
      "amerikan": 2370,
      "deren": 2371,
      "##aler": 2372,
      "Team": 2373,
      "Lassen": 2374,
      "wären": 2375,
      "Thema": 2376,
      "wor": 2377,
      "##drück": 2378,
      "schreiben": 2379,
      "hervor": 2380,
      "Möglichkeiten": 2381,
      "25": 2382,
      "Job": 2383,
      "##haft": 2384,
      "verschw": 2385,
      "Is": 2386,
      "fl": 2387,
      "##sein": 2388,
      "auszu": 2389,
      "##izieren": 2390,
      "eigene": 2391,
      "Sek": 2392,
      "gemeinsam": 2393,
      "lässt": 2394,
      "aufzu": 2395,
      "bringt": 2396,
      "jedoch": 2397,
      "erstaun": 2398,
      "Modell": 2399,
      "völlig": 2400,
      "Hilfe": 2401,
      "##statt": 2402,
      "##eigen": 2403,
      "##sph": 2404,
      "##lungs": 2405,
      "##innt": 2406,
      "damals": 2407,
      "##lektr": 2408,
      "Gedanken": 2409,
      "grund": 2410,
      "##wend": 2411,
      "##xt": 2412,
      "Boden": 2413,
      "Kü": 2414,
      "Polit": 2415,
      "Prin": 2416,
      "##ograf": 2417,
      "direkt": 2418,
      "Staaten": 2419,
      "Kat": 2420,
      "##ian": 2421,
      "genauso": 2422,
      "##iziert": 2423,
      "##tens": 2424,
      "Woche": 2425,
      "lösen": 2426,
      "##vers": 2427,
      "##spro": 2428,
      "Gesetz": 2429,
      "obwohl": 2430,
      "Markt": 2431,
      "##nahmen": 2432,
      "Zahl": 2433,
      "##bau": 2434,
      "dessen": 2435,
      "##zip": 2436,
      "gleiche": 2437,
      "fragte": 2438,
      "##ötzlich": 2439,
      "Tage": 2440,
      "##ksam": 2441,
      "##zogen": 2442,
      "letzte": 2443,
      "entscheiden": 2444,
      "Tr": 2445,
      "##troll": 2446,
      "Go": 2447,
      "aufge": 2448,
      "##fluss": 2449,
      "He": 2450,
      "##imme": 2451,
      "##sichtlich": 2452,
      "Fort": 2453,
      "##uf": 2454,
      "##are": 2455,
      "unten": 2456,
      "erlau": 2457,
      "funktionieren": 2458,
      "Zellen": 2459,
      "teil": 2460,
      "##bauen": 2461,
      "ext": 2462,
      "Nahr": 2463,
      "##ließen": 2464,
      "berü": 2465,
      "Lösung": 2466,
      "suchen": 2467,
      "##ilden": 2468,
      "Monate": 2469,
      "Oze": 2470,
      "Kraft": 2471,
      "Viele": 2472,
      "##äss": 2473,
      "##blick": 2474,
      "##ausende": 2475,
      "bleiben": 2476,
      "Namen": 2477,
      "##man": 2478,
      "##mot": 2479,
      "##bung": 2480,
      "##flanzen": 2481,
      "besteht": 2482,
      "betrachten": 2483,
      "Per": 2484,
      "dank": 2485,
      "erinner": 2486,
      "Bro": 2487,
      "hoff": 2488,
      "##möglich": 2489,
      "##rit": 2490,
      "##rakt": 2491,
      "##uche": 2492,
      "stark": 2493,
      "##cen": 2494,
      "##alien": 2495,
      "##opp": 2496,
      "rech": 2497,
      "##inger": 2498,
      "Neur": 2499,
      "##ool": 2500,
      "Stand": 2501,
      "Erfolg": 2502,
      "##gebung": 2503,
      "##ikaner": 2504,
      "##wirk": 2505,
      "ph": 2506,
      "##scht": 2507,
      "##bend": 2508,
      "sprach": 2509,
      "Pr": 2510,
      "Test": 2511,
      "ne": 2512,
      "sollen": 2513,
      "##ahren": 2514,
      "##fort": 2515,
      "inte": 2516,
      "stellt": 2517,
      "interessant": 2518,
      "Liebe": 2519,
      "Bewegung": 2520,
      "zuvor": 2521,
      "Gemeinschaft": 2522,
      "##zü": 2523,
      "Medik": 2524,
      "Ländern": 2525,
      "Öl": 2526,
      "##setzen": 2527,
      "##uld": 2528,
      "zweite": 2529,
      "##ologien": 2530,
      "benöt": 2531,
      "beweg": 2532,
      "vorher": 2533,
      "##rifft": 2534,
      "Fa": 2535,
      "##hören": 2536,
      "Fähigkeit": 2537,
      "Labor": 2538,
      "Wahl": 2539,
      "##äuf": 2540,
      "Gol": 2541,
      "sel": 2542,
      "##ählen": 2543,
      "##rop": 2544,
      "teilen": 2545,
      "##bes": 2546,
      "##cker": 2547,
      "unseres": 2548,
      "##zeuge": 2549,
      "sterben": 2550,
      "##si": 2551,
      "##bel": 2552,
      "##andelt": 2553,
      "Gef": 2554,
      "Autos": 2555,
      "##aktion": 2556,
      "Tats": 2557,
      "führt": 2558,
      "gefunden": 2559,
      "komplex": 2560,
      "##ament": 2561,
      "##spr": 2562,
      "Nation": 2563,
      "persön": 2564,
      "Är": 2565,
      "##ieten": 2566,
      "sieben": 2567,
      "##weisen": 2568,
      "Wissenschaftler": 2569,
      "##arbeitet": 2570,
      "größten": 2571,
      "ermö": 2572,
      "Sehen": 2573,
      "verbunden": 2574,
      "Familien": 2575,
      "schwierig": 2576,
      "trotz": 2577,
      "Heute": 2578,
      "##rän": 2579,
      "##ai": 2580,
      "##dlich": 2581,
      "##lage": 2582,
      "60": 2583,
      "##aren": 2584,
      "##aur": 2585,
      "Alter": 2586,
      "##chter": 2587,
      "##atten": 2588,
      "Mil": 2589,
      "bitte": 2590,
      "dein": 2591,
      "scheint": 2592,
      "##reck": 2593,
      "beeinfl": 2594,
      "Bru": 2595,
      "Archite": 2596,
      "gro": 2597,
      "##spir": 2598,
      "anderer": 2599,
      "##ffiz": 2600,
      "Char": 2601,
      "##itein": 2602,
      "welches": 2603,
      "##ve": 2604,
      "##spiele": 2605,
      "liebe": 2606,
      "##tworten": 2607,
      "Vir": 2608,
      "##auft": 2609,
      "##alter": 2610,
      "Ihren": 2611,
      "draußen": 2612,
      "kaufen": 2613,
      "##bten": 2614,
      "langsam": 2615,
      "##wohn": 2616,
      "##prochen": 2617,
      "größte": 2618,
      "Unsere": 2619,
      "##unehmen": 2620,
      "##ore": 2621,
      "##äuft": 2622,
      "Blut": 2623,
      "##völkerung": 2624,
      "##zw": 2625,
      "##zeigt": 2626,
      "Natürlich": 2627,
      "##ätze": 2628,
      "Jeder": 2629,
      "Eben": 2630,
      "Muster": 2631,
      "##sta": 2632,
      "hast": 2633,
      "Innov": 2634,
      "##line": 2635,
      "Medien": 2636,
      "Bürger": 2637,
      "mitein": 2638,
      "##ris": 2639,
      "##ub": 2640,
      "Bedeut": 2641,
      "##jekte": 2642,
      "Eis": 2643,
      "##ance": 2644,
      "##gegen": 2645,
      "##elte": 2646,
      "schließlich": 2647,
      "##reiten": 2648,
      "verbess": 2649,
      "herauszu": 2650,
      "passieren": 2651,
      "Studenten": 2652,
      "nahm": 2653,
      "Klima": 2654,
      "Kranken": 2655,
      "lesen": 2656,
      "##iff": 2657,
      "führ": 2658,
      "hinein": 2659,
      "gewesen": 2660,
      "Technik": 2661,
      "Europ": 2662,
      "erschaffen": 2663,
      "tief": 2664,
      "erinnern": 2665,
      "glücklich": 2666,
      "fanden": 2667,
      "##hält": 2668,
      "##jen": 2669,
      "##agieren": 2670,
      "##ünstler": 2671,
      "sehe": 2672,
      "##gewöhn": 2673,
      "Reihe": 2674,
      "Ozean": 2675,
      "Recht": 2676,
      "länger": 2677,
      "##ja": 2678,
      "##älfte": 2679,
      "erle": 2680,
      "##iko": 2681,
      "Anzahl": 2682,
      "##ware": 2683,
      "80": 2684,
      "Wert": 2685,
      "##inne": 2686,
      "##ity": 2687,
      "Alles": 2688,
      "Lo": 2689,
      "Erk": 2690,
      "Erw": 2691,
      "Platz": 2692,
      "gebaut": 2693,
      "Ris": 2694,
      "##itäten": 2695,
      "gelernt": 2696,
      "erklären": 2697,
      "Führ": 2698,
      "nimmt": 2699,
      "öffent": 2700,
      "##lang": 2701,
      "aussehen": 2702,
      "daraus": 2703,
      "unterst": 2704,
      "##rift": 2705,
      "Verbindung": 2706,
      "##ift": 2707,
      "##onst": 2708,
      "##rain": 2709,
      "schwar": 2710,
      "ged": 2711,
      "fort": 2712,
      "erfolg": 2713,
      "wissenschaft": 2714,
      "wachsen": 2715,
      "bewusst": 2716,
      "möchten": 2717,
      "kü": 2718,
      "##oral": 2719,
      "##itut": 2720,
      "konzentr": 2721,
      "##gesetzt": 2722,
      "##setz": 2723,
      "##ehler": 2724,
      "nachdem": 2725,
      "##örter": 2726,
      "Richtung": 2727,
      "Hoff": 2728,
      "Mag": 2729,
      "kleines": 2730,
      "CA": 2731,
      "##lin": 2732,
      "##äß": 2733,
      "deshalb": 2734,
      "##weis": 2735,
      "tö": 2736,
      "##lter": 2737,
      "essen": 2738,
      "bed": 2739,
      "schrieb": 2740,
      "geworden": 2741,
      "verloren": 2742,
      "stellte": 2743,
      "Tatsache": 2744,
      "To": 2745,
      "bist": 2746,
      "##co": 2747,
      "##ochen": 2748,
      "Schritt": 2749,
      "beginnt": 2750,
      "Technologien": 2751,
      "jemals": 2752,
      "schlecht": 2753,
      "miteinander": 2754,
      "überr": 2755,
      "Besch": 2756,
      "##immer": 2757,
      "Alle": 2758,
      "Sicht": 2759,
      "##lauf": 2760,
      "##zeugt": 2761,
      "Kamer": 2762,
      "Wahrheit": 2763,
      "##ividu": 2764,
      "##ämp": 2765,
      "folgen": 2766,
      "Do": 2767,
      "danach": 2768,
      "##lassen": 2769,
      "##fern": 2770,
      "gegenüber": 2771,
      "Süd": 2772,
      "##fäh": 2773,
      "##olz": 2774,
      "##ativen": 2775,
      "kleiner": 2776,
      "Metho": 2777,
      "übr": 2778,
      "Tatsächlich": 2779,
      "hil": 2780,
      "bew": 2781,
      "Wirklich": 2782,
      "##afft": 2783,
      "Vortrag": 2784,
      "Städte": 2785,
      "Mot": 2786,
      "neben": 2787,
      "##urt": 2788,
      "Umgebung": 2789,
      "##gessen": 2790,
      "Deshalb": 2791,
      "anfangen": 2792,
      "Fuß": 2793,
      "##ator": 2794,
      "##reibt": 2795,
      "Einige": 2796,
      "mache": 2797,
      "plötzlich": 2798,
      "Situation": 2799,
      "##aß": 2800,
      "##gefühl": 2801,
      "wert": 2802,
      "hinaus": 2803,
      "Blick": 2804,
      "Krankheit": 2805,
      "qu": 2806,
      "##ese": 2807,
      "##rauch": 2808,
      "Bel": 2809,
      "Ho": 2810,
      "sofort": 2811,
      "Ihrer": 2812,
      "Aktiv": 2813,
      "Hälfte": 2814,
      "##eider": 2815,
      "Stimme": 2816,
      "beschäft": 2817,
      "guten": 2818,
      "hör": 2819,
      "raus": 2820,
      "##uh": 2821,
      "##ons": 2822,
      "##igit": 2823,
      "findet": 2824,
      "Veränderung": 2825,
      "aktiv": 2826,
      "##ufen": 2827,
      "##merksam": 2828,
      "Forschung": 2829,
      "egal": 2830,
      "zehn": 2831,
      "##ement": 2832,
      "##recht": 2833,
      "Rolle": 2834,
      "Studie": 2835,
      "techn": 2836,
      "##prä": 2837,
      "##eisen": 2838,
      "##unkte": 2839,
      "genannt": 2840,
      "##pe": 2841,
      "##asen": 2842,
      "Bildung": 2843,
      "höher": 2844,
      "Größe": 2845,
      "Rad": 2846,
      "Während": 2847,
      "bi": 2848,
      "laufen": 2849,
      "##ierungen": 2850,
      "allein": 2851,
      "benutzt": 2852,
      "Aufgabe": 2853,
      "Ihrem": 2854,
      "DNA": 2855,
      "Viel": 2856,
      "##ängen": 2857,
      "Gewalt": 2858,
      "Tem": 2859,
      "##mit": 2860,
      "gezeigt": 2861,
      ".“": 2862,
      "Vorstellung": 2863,
      "Reise": 2864,
      "entfernt": 2865,
      "Dro": 2866,
      "acht": 2867,
      "##min": 2868,
      "verö": 2869,
      "samm": 2870,
      "##rans": 2871,
      "Herausforderung": 2872,
      "Sonnen": 2873,
      "sonst": 2874,
      "##chn": 2875,
      "##aszin": 2876,
      "schau": 2877,
      "Demokrat": 2878,
      "Bedeutung": 2879,
      "Teile": 2880,
      "einge": 2881,
      "verwendet": 2882,
      "##zeitig": 2883,
      "bekommt": 2884,
      "##ct": 2885,
      "##kraft": 2886,
      "Erd": 2887,
      "##änge": 2888,
      "reich": 2889,
      "##trolle": 2890,
      "Fisch": 2891,
      "Nie": 2892,
      "##spekt": 2893,
      "nachdenken": 2894,
      "Bar": 2895,
      "Fä": 2896,
      "gefähr": 2897,
      "Prinzip": 2898,
      "App": 2899,
      "##durch": 2900,
      "##esent": 2901,
      "##sprechen": 2902,
      "Straßen": 2903,
      "##wirtschaft": 2904,
      "Entwicklungs": 2905,
      "Ju": 2906,
      "##ichtet": 2907,
      "##ändig": 2908,
      "Tele": 2909,
      "Schü": 2910,
      "nachzu": 2911,
      "Meinung": 2912,
      "##imens": 2913,
      "Wachstum": 2914,
      "öff": 2915,
      "##iten": 2916,
      "##ollen": 2917,
      "##stet": 2918,
      "##edizin": 2919,
      "##eister": 2920,
      "Prof": 2921,
      "##iver": 2922,
      "bekannt": 2923,
      "Maschine": 2924,
      "Mathemat": 2925,
      "rein": 2926,
      "tat": 2927,
      "##les": 2928,
      "##zeh": 2929,
      "##echan": 2930,
      "Chem": 2931,
      "Kolle": 2932,
      "soziale": 2933,
      "##uell": 2934,
      "##wasser": 2935,
      "ziehen": 2936,
      "hoffe": 2937,
      "Mitte": 2938,
      "Zeu": 2939,
      "se": 2940,
      "##nline": 2941,
      "##fon": 2942,
      "##fekt": 2943,
      "##immel": 2944,
      "Medizin": 2945,
      "Foto": 2946,
      "Preis": 2947,
      "ur": 2948,
      "##ezi": 2949,
      "##andlung": 2950,
      "##uchs": 2951,
      "Information": 2952,
      "Kal": 2953,
      "zerst": 2954,
      "##itter": 2955,
      "beide": 2956,
      "mögen": 2957,
      "niemals": 2958,
      "##radition": 2959,
      "Entscheidungen": 2960,
      "extrem": 2961,
      "11": 2962,
      "Har": 2963,
      "Nord": 2964,
      "end": 2965,
      "verrück": 2966,
      "199": 2967,
      "Kil": 2968,
      "Zahlen": 2969,
      "ak": 2970,
      "eng": 2971,
      "gingen": 2972,
      "Realität": 2973,
      "Nachrichten": 2974,
      "Straße": 2975,
      "alten": 2976,
      "##ose": 2977,
      "machten": 2978,
      "##ppe": 2979,
      "Karte": 2980,
      "##ierend": 2981,
      "jemanden": 2982,
      "##ysik": 2983,
      "##wusstsein": 2984,
      "erfolgreich": 2985,
      "Gra": 2986,
      "Ka": 2987,
      "##etter": 2988,
      "Strom": 2989,
      "Schauen": 2990,
      "erreicht": 2991,
      "Bä": 2992,
      "Geist": 2993,
      "Tür": 2994,
      "##unk": 2995,
      "verbr": 2996,
      "ans": 2997,
      "gegeben": 2998,
      "Firma": 2999,
      "##sphäre": 3000,
      "Druck": 3001,
      "Tat": 3002,
      "Inte": 3003,
      "zeige": 3004,
      "##tzut": 3005,
      "Kosten": 3006,
      "weltweit": 3007,
      "##iegen": 3008,
      "##eutzut": 3009,
      "beste": 3010,
      "Stat": 3011,
      "##omb": 3012,
      "##alls": 3013,
      "##eutzutage": 3014,
      "Dor": 3015,
      "Ding": 3016,
      "##roffen": 3017,
      "stand": 3018,
      "##itel": 3019,
      "Meter": 3020,
      "##bildung": 3021,
      "90": 3022,
      "kontroll": 3023,
      "##arbeiten": 3024,
      "blau": 3025,
      "pos": 3026,
      "toll": 3027,
      "bekam": 3028,
      "wichtiger": 3029,
      "Sonne": 3030,
      "Miss": 3031,
      "Sh": 3032,
      "##ologen": 3033,
      "##sprü": 3034,
      "genommen": 3035,
      "##ester": 3036,
      "Kommun": 3037,
      "Mole": 3038,
      "fliegen": 3039,
      "##öst": 3040,
      "##rate": 3041,
      "entst": 3042,
      "Vereinigten": 3043,
      "##inz": 3044,
      "##ogra": 3045,
      "##istan": 3046,
      "hinzu": 3047,
      "##ertig": 3048,
      "Amerika": 3049,
      "komplett": 3050,
      "##jenigen": 3051,
      "!\"": 3052,
      "Gu": 3053,
      "Nur": 3054,
      "Sc": 3055,
      "Wel": 3056,
      "##viel": 3057,
      "daher": 3058,
      "schneller": 3059,
      "Maß": 3060,
      "brachte": 3061,
      "te": 3062,
      "##ame": 3063,
      "Generation": 3064,
      "500": 3065,
      "Pla": 3066,
      "lau": 3067,
      "##gest": 3068,
      "Jahrzeh": 3069,
      "interessiert": 3070,
      "##itzt": 3071,
      "Bakter": 3072,
      "nennt": 3073,
      "##ari": 3074,
      "sozialen": 3075,
      "Fähigkeiten": 3076,
      "Beziehung": 3077,
      "Fehler": 3078,
      "Sau": 3079,
      "Von": 3080,
      "##ätzen": 3081,
      "Revolution": 3082,
      "##antast": 3083,
      "##findet": 3084,
      "Goog": 3085,
      "OK": 3086,
      "Park": 3087,
      "empf": 3088,
      "fahren": 3089,
      "##roh": 3090,
      "##ram": 3091,
      "##ister": 3092,
      "Hinter": 3093,
      "bas": 3094,
      "tot": 3095,
      "liegen": 3096,
      "Kan": 3097,
      "Zeich": 3098,
      "nein": 3099,
      "##zte": 3100,
      "##indungen": 3101,
      "##üss": 3102,
      "neues": 3103,
      "Männ": 3104,
      "setzen": 3105,
      "##stück": 3106,
      "##ales": 3107,
      "Soft": 3108,
      "Bücher": 3109,
      "absolut": 3110,
      "Papier": 3111,
      "Ru": 3112,
      "enor": 3113,
      "##arkt": 3114,
      "##atte": 3115,
      "##essour": 3116,
      "geboren": 3117,
      "Universität": 3118,
      "Ergebnis": 3119,
      "herauszufinden": 3120,
      "Hoch": 3121,
      "faszin": 3122,
      "Einz": 3123,
      "##abhäng": 3124,
      "einfache": 3125,
      "##eder": 3126,
      "früher": 3127,
      "Oberfläche": 3128,
      "Hoffnung": 3129,
      "Ad": 3130,
      "Psych": 3131,
      "##ek": 3132,
      "##wind": 3133,
      "Wieder": 3134,
      "geschieht": 3135,
      "Super": 3136,
      "##ente": 3137,
      "##struktur": 3138,
      "Studien": 3139,
      "gesamte": 3140,
      "moder": 3141,
      "Tro": 3142,
      "Sex": 3143,
      "##ällt": 3144,
      "anstatt": 3145,
      "##edu": 3146,
      "großer": 3147,
      "Evolution": 3148,
      "geschrieben": 3149,
      "Webs": 3150,
      "Fortsch": 3151,
      "##wirkungen": 3152,
      "Wür": 3153,
      "##pfen": 3154,
      "wirtschaft": 3155,
      "intern": 3156,
      "##ikel": 3157,
      "Künstler": 3158,
      "Wörter": 3159,
      "kre": 3160,
      "##lungen": 3161,
      "##daten": 3162,
      "##iegel": 3163,
      "aut": 3164,
      "##ikation": 3165,
      "übert": 3166,
      "stimmt": 3167,
      "gesprochen": 3168,
      "Sym": 3169,
      "##ämpfen": 3170,
      "##ehmer": 3171,
      "verurs": 3172,
      "Genau": 3173,
      "Europa": 3174,
      "16": 3175,
      "Auch": 3176,
      "##raten": 3177,
      "Gruppen": 3178,
      "##merksamkeit": 3179,
      "Ir": 3180,
      "Terr": 3181,
      "Uhr": 3182,
      "prä": 3183,
      "##ziert": 3184,
      "##glie": 3185,
      "##feld": 3186,
      "##wesen": 3187,
      "##enk": 3188,
      "##rech": 3189,
      "lieben": 3190,
      "irgendw": 3191,
      "Produkt": 3192,
      "Politik": 3193,
      "Glau": 3194,
      "Seiten": 3195,
      "bein": 3196,
      "dachten": 3197,
      "digit": 3198,
      "jähr": 3199,
      "tragen": 3200,
      "##ieg": 3201,
      "##schw": 3202,
      "verg": 3203,
      "gebe": 3204,
      "Aufmerksamkeit": 3205,
      "Wohl": 3206,
      "Google": 3207,
      "Frü": 3208,
      "Gel": 3209,
      "sahen": 3210,
      "##üssel": 3211,
      "##gendes": 3212,
      "##ienst": 3213,
      "Zugang": 3214,
      "ernst": 3215,
      "14": 3216,
      "Wind": 3217,
      "##stein": 3218,
      "##mmern": 3219,
      "Bevölkerung": 3220,
      "##obil": 3221,
      "erwä": 3222,
      "##trauen": 3223,
      "Ressour": 3224,
      "elektr": 3225,
      "zer": 3226,
      "##verb": 3227,
      "heut": 3228,
      "Schön": 3229,
      "passierte": 3230,
      "defin": 3231,
      "bewegt": 3232,
      "Dorf": 3233,
      "##lern": 3234,
      "einzu": 3235,
      "zuerst": 3236,
      "##essere": 3237,
      "Orte": 3238,
      "begannen": 3239,
      "finde": 3240,
      "Institut": 3241,
      "Hü": 3242,
      "Pflanzen": 3243,
      "Sa": 3244,
      "leg": 3245,
      "älter": 3246,
      "Erinner": 3247,
      "##nete": 3248,
      "Kontrolle": 3249,
      "En": 3250,
      "Ster": 3251,
      "lern": 3252,
      "lok": 3253,
      "##iot": 3254,
      "##igens": 3255,
      "##schlag": 3256,
      "##indest": 3257,
      "Baum": 3258,
      "Hel": 3259,
      "##auber": 3260,
      "überw": 3261,
      "bestimmt": 3262,
      "Software": 3263,
      "Hig": 3264,
      "junge": 3265,
      "##beh": 3266,
      "vorh": 3267,
      "gleichzeitig": 3268,
      "##elegen": 3269,
      "ähnlich": 3270,
      "Demokratie": 3271,
      "Elekt": 3272,
      "blo": 3273,
      "##ile": 3274,
      "##deck": 3275,
      "##igte": 3276,
      "##pfer": 3277,
      "versuchte": 3278,
      "bestimmten": 3279,
      "beobachten": 3280,
      "Fin": 3281,
      "##ven": 3282,
      "##geh": 3283,
      "##ivil": 3284,
      "Regen": 3285,
      "Regeln": 3286,
      "Versuch": 3287,
      "Können": 3288,
      "Bill": 3289,
      "Mehr": 3290,
      "erfor": 3291,
      "stud": 3292,
      "abzu": 3293,
      "Phil": 3294,
      "wichtige": 3295,
      "Medikamen": 3296,
      "Gut": 3297,
      "Himmel": 3298,
      "kur": 3299,
      "##vent": 3300,
      "##ussen": 3301,
      "##ickt": 3302,
      "##ologische": 3303,
      "verlassen": 3304,
      "ehr": 3305,
      "änder": 3306,
      "ansehen": 3307,
      "Sohn": 3308,
      "Wohn": 3309,
      "bessere": 3310,
      "sitzen": 3311,
      "spezie": 3312,
      "näher": 3313,
      "Experiment": 3314,
      "Th": 3315,
      "bald": 3316,
      "falls": 3317,
      "##mö": 3318,
      "verfü": 3319,
      "Schn": 3320,
      "Prote": 3321,
      "##ime": 3322,
      "##gesehen": 3323,
      "Schulen": 3324,
      "Molekü": 3325,
      "Leiden": 3326,
      "Morgen": 3327,
      "Rech": 3328,
      "##orfen": 3329,
      "Menschheit": 3330,
      "Einfluss": 3331,
      "##underte": 3332,
      "##altung": 3333,
      "Monaten": 3334,
      "schlechte": 3335,
      "wider": 3336,
      "##imul": 3337,
      "Mitgefühl": 3338,
      "Zeug": 3339,
      "Bus": 3340,
      "Vol": 3341,
      "bilden": 3342,
      "##kam": 3343,
      "##gliche": 3344,
      "##twas": 3345,
      "Bewusstsein": 3346,
      "201": 3347,
      "Zentr": 3348,
      "vorbei": 3349,
      "ständig": 3350,
      "Amerikaner": 3351,
      "nahe": 3352,
      "Armut": 3353,
      "Lauf": 3354,
      "Ton": 3355,
      "medizin": 3356,
      "inspir": 3357,
      "Nachbar": 3358,
      "Arbeits": 3359,
      "verbessern": 3360,
      "Mü": 3361,
      "Ta": 3362,
      "##öff": 3363,
      "##stra": 3364,
      "gesp": 3365,
      "Konzept": 3366,
      "##imp": 3367,
      "##aff": 3368,
      "invest": 3369,
      "Eines": 3370,
      "Spezie": 3371,
      "Gerät": 3372,
      "Gala": 3373,
      "John": 3374,
      "prakt": 3375,
      "reg": 3376,
      "##ix": 3377,
      "##rab": 3378,
      "kosten": 3379,
      "Krankheiten": 3380,
      "richtige": 3381,
      "Poliz": 3382,
      "Bot": 3383,
      "Jed": 3384,
      "Zw": 3385,
      "##ama": 3386,
      "ihres": 3387,
      "##abil": 3388,
      "##herap": 3389,
      "##app": 3390,
      "bedeuten": 3391,
      "70": 3392,
      "Stern": 3393,
      "kannst": 3394,
      "untersch": 3395,
      "Stelle": 3396,
      "bleibt": 3397,
      "Schüler": 3398,
      "##gten": 3399,
      "gearbeitet": 3400,
      "Prot": 3401,
      "Daher": 3402,
      "internation": 3403,
      "Tagen": 3404,
      "fantast": 3405,
      "##ählt": 3406,
      "##ützt": 3407,
      "Theorie": 3408,
      "einzelne": 3409,
      "Terror": 3410,
      "Car": 3411,
      "HI": 3412,
      "gek": 3413,
      "##itär": 3414,
      "Stamm": 3415,
      "##machen": 3416,
      "##greifen": 3417,
      "##atisch": 3418,
      "##uchte": 3419,
      "Konfl": 3420,
      "arbeitete": 3421,
      "##ständnis": 3422,
      "Firmen": 3423,
      "richtigen": 3424,
      "bemerken": 3425,
      "Engl": 3426,
      "##windigkeit": 3427,
      "Galax": 3428,
      "##az": 3429,
      "##igner": 3430,
      "##eits": 3431,
      "##legt": 3432,
      "##echsel": 3433,
      "verlieren": 3434,
      "##blich": 3435,
      "##ins": 3436,
      "möglichen": 3437,
      "Grenzen": 3438,
      "offensichtlich": 3439,
      "wussten": 3440,
      "Feuer": 3441,
      "Relig": 3442,
      "Trä": 3443,
      "##orben": 3444,
      "denkt": 3445,
      "Arbei": 3446,
      "Orten": 3447,
      "Abend": 3448,
      "natür": 3449,
      "##ipp": 3450,
      "##dass": 3451,
      "##dessen": 3452,
      "##apan": 3453,
      "Beispiele": 3454,
      "##kommt": 3455,
      "Kern": 3456,
      "ok": 3457,
      "##irm": 3458,
      "vergessen": 3459,
      "dahin": 3460,
      "Nachricht": 3461,
      "##zähl": 3462,
      "##schluss": 3463,
      "##ombin": 3464,
      "##onie": 3465,
      "vert": 3466,
      "##isst": 3467,
      "Vergangen": 3468,
      "##iven": 3469,
      "Gebiet": 3470,
      "Ebene": 3471,
      "Fr": 3472,
      "großes": 3473,
      "##teilt": 3474,
      "veröffent": 3475,
      "morgen": 3476,
      "##orge": 3477,
      "##eitung": 3478,
      "##abel": 3479,
      "zumindest": 3480,
      "##quenz": 3481,
      "aussieht": 3482,
      "links": 3483,
      "Wirklichkeit": 3484,
      "17": 3485,
      "##oss": 3486,
      "##teilen": 3487,
      "erklär": 3488,
      "anschauen": 3489,
      "häuf": 3490,
      "##ielten": 3491,
      "Personen": 3492,
      "Entscheidung": 3493,
      "produzieren": 3494,
      "Bas": 3495,
      "Rau": 3496,
      "winz": 3497,
      "##mäß": 3498,
      "##lam": 3499,
      "erzeugen": 3500,
      "Erf": 3501,
      "HIV": 3502,
      "##ächen": 3503,
      "##arm": 3504,
      "##ckte": 3505,
      "Ord": 3506,
      "##klär": 3507,
      "##ünft": 3508,
      "voller": 3509,
      "Ergebnisse": 3510,
      "Chris": 3511,
      "Leist": 3512,
      "echte": 3513,
      "##altet": 3514,
      "Ern": 3515,
      "Vert": 3516,
      "Best": 3517,
      "Herr": 3518,
      "Nerv": 3519,
      "##gemein": 3520,
      "##falt": 3521,
      "##wür": 3522,
      "##wand": 3523,
      "##ym": 3524,
      "##ürz": 3525,
      "irgendwo": 3526,
      "##ausend": 3527,
      "Bakterien": 3528,
      "Ressourcen": 3529,
      "Vergangenheit": 3530,
      "Vis": 3531,
      "dest": 3532,
      "nenne": 3533,
      "tä": 3534,
      "sodass": 3535,
      "verbinden": 3536,
      "Frieden": 3537,
      "Nä": 3538,
      "Oper": 3539,
      "fertig": 3540,
      "##eitet": 3541,
      "##arf": 3542,
      "##ital": 3543,
      "manche": 3544,
      "Verantwort": 3545,
      "arbeitet": 3546,
      "##licherweise": 3547,
      "Geschäfts": 3548,
      "Sekunden": 3549,
      "Kä": 3550,
      "et": 3551,
      "selt": 3552,
      "vis": 3553,
      "##grü": 3554,
      "##stru": 3555,
      "##els": 3556,
      "##isse": 3557,
      "schreck": 3558,
      "##ktor": 3559,
      "stär": 3560,
      "Spaß": 3561,
      "gewinnen": 3562,
      "Regierungen": 3563,
      "solchen": 3564,
      "Worte": 3565,
      "erlaubt": 3566,
      "##rise": 3567,
      "nachzudenken": 3568,
      "Det": 3569,
      "Haut": 3570,
      "Pos": 3571,
      "##ry": 3572,
      "##oph": 3573,
      "versuche": 3574,
      "erhö": 3575,
      "untersuchen": 3576,
      "Innovation": 3577,
      "Mathematik": 3578,
      "Spezies": 3579,
      "hundert": 3580,
      "runter": 3581,
      "##nungen": 3582,
      "##kre": 3583,
      "##gor": 3584,
      "##räfte": 3585,
      "##äusch": 3586,
      "erzählt": 3587,
      "Monat": 3588,
      "##press": 3589,
      "Not": 3590,
      "Wand": 3591,
      "deine": 3592,
      "heutzutage": 3593,
      "redu": 3594,
      "##tel": 3595,
      "##ath": 3596,
      "##ierter": 3597,
      "##laufen": 3598,
      "gewalt": 3599,
      "##zimmer": 3600,
      "keiner": 3601,
      "gefragt": 3602,
      "Industrie": 3603,
      "Objekt": 3604,
      "##ograph": 3605,
      "bau": 3606,
      "hol": 3607,
      "##hand": 3608,
      "zeigte": 3609,
      "##ssystem": 3610,
      "gesamten": 3611,
      "führte": 3612,
      "auft": 3613,
      "gekommen": 3614,
      "gebracht": 3615,
      "Invest": 3616,
      "Präsi": 3617,
      "befinden": 3618,
      "##ildet": 3619,
      "##ingungen": 3620,
      "Gefü": 3621,
      "##folgen": 3622,
      "##ferenz": 3623,
      "trotzdem": 3624,
      "##ffizien": 3625,
      "kaum": 3626,
      "##wissen": 3627,
      "##bert": 3628,
      "erfahren": 3629,
      "##stelle": 3630,
      "##örder": 3631,
      "Kons": 3632,
      "Sand": 3633,
      "Sign": 3634,
      "##ser": 3635,
      "##indern": 3636,
      "Chance": 3637,
      "##merz": 3638,
      "interessante": 3639,
      "Linie": 3640,
      "Maschinen": 3641,
      "bestimmte": 3642,
      "organis": 3643,
      "traf": 3644,
      "##ball": 3645,
      "##sto": 3646,
      "##genie": 3647,
      "Schla": 3648,
      "spr": 3649,
      "##zeichnet": 3650,
      "13": 3651,
      "CO": 3652,
      "Gelegen": 3653,
      "at": 3654,
      "##fg": 3655,
      "vern": 3656,
      "##reg": 3657,
      "Landes": 3658,
      "Geburt": 3659,
      "Wahrscheinlich": 3660,
      "##holen": 3661,
      "Heim": 3662,
      "Ker": 3663,
      "##gebracht": 3664,
      "##reitet": 3665,
      "Jahres": 3666,
      "geschehen": 3667,
      "Kampf": 3668,
      "Gefäng": 3669,
      "300": 3670,
      "Kur": 3671,
      "Transp": 3672,
      "##iell": 3673,
      "einander": 3674,
      "##arte": 3675,
      "aufre": 3676,
      "##twend": 3677,
      "##etzten": 3678,
      "niedr": 3679,
      "arbeite": 3680,
      "neun": 3681,
      "Krankenhaus": 3682,
      "hilft": 3683,
      "Kollegen": 3684,
      "Glauben": 3685,
      "Ak": 3686,
      "Ben": 3687,
      "Sinne": 3688,
      "##nü": 3689,
      "zufä": 3690,
      "angef": 3691,
      "##uchten": 3692,
      "herausfinden": 3693,
      "Systeme": 3694,
      "globalen": 3695,
      "Partner": 3696,
      "Baby": 3697,
      "wann": 3698,
      "##öpf": 3699,
      "##amt": 3700,
      "Inf": 3701,
      "##ierende": 3702,
      "##forsch": 3703,
      "Geheim": 3704,
      "normalerweise": 3705,
      "Diag": 3706,
      "Methode": 3707,
      "moral": 3708,
      "rund": 3709,
      "retten": 3710,
      "##pu": 3711,
      "##uhr": 3712,
      "##unt": 3713,
      "unmöglich": 3714,
      "##utzung": 3715,
      "lebt": 3716,
      "Meeres": 3717,
      "##wendung": 3718,
      "hörte": 3719,
      "Hände": 3720,
      "##äte": 3721,
      "sowohl": 3722,
      "aufgrund": 3723,
      "##werke": 3724,
      "##zial": 3725,
      "##produ": 3726,
      "großartige": 3727,
      "entdecken": 3728,
      "Beziehungen": 3729,
      "Disk": 3730,
      "psych": 3731,
      "##win": 3732,
      "##50": 3733,
      "##eiter": 3734,
      "##emand": 3735,
      "dadurch": 3736,
      "Bezug": 3737,
      "##schiede": 3738,
      "dritte": 3739,
      "##ometer": 3740,
      "hält": 3741,
      "jungen": 3742,
      "##rig": 3743,
      "##hang": 3744,
      "##illen": 3745,
      "##yt": 3746,
      "##org": 3747,
      "##itionen": 3748,
      "##peratur": 3749,
      "##rägt": 3750,
      "##arbeiter": 3751,
      "König": 3752,
      "einzelnen": 3753,
      "Freiheit": 3754,
      "läuft": 3755,
      "##ücht": 3756,
      "##wenden": 3757,
      "##anter": 3758,
      "großartig": 3759,
      "Organisation": 3760,
      "danke": 3761,
      "National": 3762,
      "sammeln": 3763,
      "Gem": 3764,
      "##astrop": 3765,
      "Telefon": 3766,
      "Auss": 3767,
      "Mich": 3768,
      "tau": 3769,
      "##kul": 3770,
      "##zunehmen": 3771,
      "Erst": 3772,
      "##reise": 3773,
      "Formen": 3774,
      "einzig": 3775,
      "rechts": 3776,
      "Damit": 3777,
      "##fghan": 3778,
      "Bienen": 3779,
      "##otwend": 3780,
      "##wart": 3781,
      "##stände": 3782,
      "##asche": 3783,
      "Stre": 3784,
      "##etzte": 3785,
      "genet": 3786,
      "Außer": 3787,
      "Auswirkungen": 3788,
      "Fluss": 3789,
      "198": 3790,
      "Ärzte": 3791,
      "##eum": 3792,
      "Höhe": 3793,
      "Nummer": 3794,
      "Jungen": 3795,
      "lag": 3796,
      "tie": 3797,
      "##samen": 3798,
      "##wandel": 3799,
      "##volle": 3800,
      "verste": 3801,
      "##bed": 3802,
      "Ingenie": 3803,
      "##ologischen": 3804,
      "Million": 3805,
      "##ativität": 3806,
      "Mars": 3807,
      "Nahrung": 3808,
      "Ordnung": 3809,
      "Zivil": 3810,
      "##len": 3811,
      "##jähr": 3812,
      "##sprach": 3813,
      "##abr": 3814,
      "herunter": 3815,
      "zweiten": 3816,
      "##rist": 3817,
      "Regel": 3818,
      "geschaffen": 3819,
      "verstanden": 3820,
      "Dav": 3821,
      "##loss": 3822,
      "Haben": 3823,
      "##ständig": 3824,
      "außerhalb": 3825,
      "amerikanischen": 3826,
      "Erwachsen": 3827,
      "Noch": 3828,
      "Vo": 3829,
      "is": 3830,
      "##anen": 3831,
      "gestellt": 3832,
      "##folge": 3833,
      "Berg": 3834,
      "alte": 3835,
      "Gründe": 3836,
      "öffentlichen": 3837,
      "Ball": 3838,
      "leisten": 3839,
      "of": 3840,
      "##rt": 3841,
      "##reche": 3842,
      "##assung": 3843,
      "entschieden": 3844,
      "Fotos": 3845,
      "riesige": 3846,
      "##motion": 3847,
      "##glicht": 3848,
      "Vergleich": 3849,
      "##hnung": 3850,
      "##ahmen": 3851,
      "lief": 3852,
      "gewöhn": 3853,
      "bestehen": 3854,
      "erzählte": 3855,
      "##gaben": 3856,
      "höch": 3857,
      "Netzwerk": 3858,
      "Fakt": 3859,
      "Ser": 3860,
      "mächt": 3861,
      "##ille": 3862,
      "hab": 3863,
      "##ums": 3864,
      "Einkommen": 3865,
      "Anal": 3866,
      "##änomen": 3867,
      "kommun": 3868,
      "Entdeck": 3869,
      "##ütter": 3870,
      "##stoffe": 3871,
      "Brust": 3872,
      "##kop": 3873,
      "##zahlen": 3874,
      "##gibt": 3875,
      "diejenigen": 3876,
      "##aup": 3877,
      "##ehme": 3878,
      "warten": 3879,
      "ermöglicht": 3880,
      "unterstützen": 3881,
      "desto": 3882,
      "Punkte": 3883,
      "##ifor": 3884,
      "##seh": 3885,
      "##grupp": 3886,
      "uner": 3887,
      "##amer": 3888,
      "Schwe": 3889,
      "Arzt": 3890,
      "spielt": 3891,
      "fühlte": 3892,
      "Büro": 3893,
      "##äuser": 3894,
      "Wesen": 3895,
      "jung": 3896,
      "pr": 3897,
      "##iesen": 3898,
      "##eidet": 3899,
      "##unächst": 3900,
      "##rochen": 3901,
      "##leb": 3902,
      "befindet": 3903,
      "Gespr": 3904,
      "Chin": 3905,
      "Schlüssel": 3906,
      "Flugzeug": 3907,
      "Liste": 3908,
      "Architektur": 3909,
      "##imension": 3910,
      "Pass": 3911,
      "effekt": 3912,
      "fing": 3913,
      "taten": 3914,
      "##mt": 3915,
      "##met": 3916,
      "##indet": 3917,
      "##iter": 3918,
      "schützen": 3919,
      "##ossen": 3920,
      "Reaktion": 3921,
      "Mark": 3922,
      "Quad": 3923,
      "Unser": 3924,
      "entdeckt": 3925,
      "21": 3926,
      "##par": 3927,
      "##orn": 3928,
      "ant": 3929,
      "##ivat": 3930,
      "abge": 3931,
      "Manchmal": 3932,
      "übrigens": 3933,
      "Fe": 3934,
      "Win": 3935,
      "ca": 3936,
      "##eiste": 3937,
      "##iti": 3938,
      "Schrift": 3939,
      "Verständnis": 3940,
      "sta": 3941,
      "bisher": 3942,
      "gutes": 3943,
      "ebenso": 3944,
      "##ynam": 3945,
      "Kreis": 3946,
      "Lö": 3947,
      "Tisch": 3948,
      "##nehm": 3949,
      "##ssen": 3950,
      "##zwei": 3951,
      "##önen": 3952,
      "##apt": 3953,
      "einzigen": 3954,
      "Bühne": 3955,
      "##ätzlich": 3956,
      "handelt": 3957,
      "Kamera": 3958,
      "CO2": 3959,
      "Grad": 3960,
      "tradition": 3961,
      "##ritte": 3962,
      "##ürf": 3963,
      "Inse": 3964,
      "Verfü": 3965,
      "Artikel": 3966,
      "Behandlung": 3967,
      "Drogen": 3968,
      "Pe": 3969,
      "Ök": 3970,
      "##eller": 3971,
      "Interesse": 3972,
      "wundersch": 3973,
      "Beginn": 3974,
      "selben": 3975,
      "Klimawandel": 3976,
      "Ep": 3977,
      "Finger": 3978,
      "Traum": 3979,
      "##ikt": 3980,
      "##schirm": 3981,
      "##auern": 3982,
      "dasselbe": 3983,
      "Stunde": 3984,
      "##ilde": 3985,
      "Designer": 3986,
      "betrachtet": 3987,
      "Farbe": 3988,
      "seltsam": 3989,
      "Bis": 3990,
      "Hall": 3991,
      "Tal": 3992,
      "fr": 3993,
      "messen": 3994,
      "Gehirns": 3995,
      "##selben": 3996,
      "grundlegen": 3997,
      "Fran": 3998,
      "Name": 3999,
      "akt": 4000,
      "cool": 4001,
      "##such": 4002,
      "##anze": 4003,
      "wenige": 4004,
      "welcher": 4005,
      "##änden": 4006,
      "Individu": 4007,
      "entweder": 4008,
      "Komplex": 4009,
      "belie": 4010,
      "Jedes": 4011,
      "Ach": 4012,
      "Fo": 4013,
      "Wald": 4014,
      "hinge": 4015,
      "wün": 4016,
      "##pag": 4017,
      "##isieren": 4018,
      "Zeitpunkt": 4019,
      "##stellungen": 4020,
      "Exp": 4021,
      "ebenfalls": 4022,
      "Englisch": 4023,
      "Mär": 4024,
      "San": 4025,
      "land": 4026,
      "##ov": 4027,
      "##aben": 4028,
      "##zut": 4029,
      "Spr": 4030,
      "guter": 4031,
      "Hirn": 4032,
      "Wol": 4033,
      "Wunder": 4034,
      "and": 4035,
      "##ane": 4036,
      "##achtet": 4037,
      "bean": 4038,
      "Ins": 4039,
      "Einer": 4040,
      "herstellen": 4041,
      "Herzen": 4042,
      "##maßen": 4043,
      "Liebl": 4044,
      "##wärts": 4045,
      "Bu": 4046,
      "##passen": 4047,
      "##buch": 4048,
      "##stä": 4049,
      "##stung": 4050,
      "erleben": 4051,
      "sowie": 4052,
      "##reie": 4053,
      "mehrere": 4054,
      "getroffen": 4055,
      "berühm": 4056,
      "Medikamente": 4057,
      "opt": 4058,
      "##oo": 4059,
      "##kur": 4060,
      "##gien": 4061,
      "##ießen": 4062,
      "##ndon": 4063,
      "##ährt": 4064,
      "##barkeit": 4065,
      "Gene": 4066,
      "##frikan": 4067,
      "Gefängnis": 4068,
      "Funktion": 4069,
      "Poten": 4070,
      "mer": 4071,
      "##zer": 4072,
      "##iete": 4073,
      "##gebaut": 4074,
      "nahmen": 4075,
      "erinnere": 4076,
      "Charakter": 4077,
      "Einzel": 4078,
      "Zeiten": 4079,
      "##fassen": 4080,
      "##eisch": 4081,
      "##örp": 4082,
      "gewiss": 4083,
      "Wege": 4084,
      "Jahrhunderts": 4085,
      "erwarten": 4086,
      "phys": 4087,
      "Cl": 4088,
      "Fen": 4089,
      "Feld": 4090,
      "Lernen": 4091,
      "##schte": 4092,
      "##ilt": 4093,
      "spricht": 4094,
      "##liegen": 4095,
      "##ellschaften": 4096,
      "Teilen": 4097,
      "##lose": 4098,
      "intelligen": 4099,
      "##iforn": 4100,
      "Afghan": 4101,
      "La": 4102,
      "##masch": 4103,
      "##gnor": 4104,
      "##schu": 4105,
      "##orgt": 4106,
      "unver": 4107,
      "erwei": 4108,
      "weiteren": 4109,
      "Erfahrungen": 4110,
      "Lösungen": 4111,
      "Risiko": 4112,
      "heutigen": 4113,
      "Mitt": 4114,
      "freu": 4115,
      "km": 4116,
      "##enze": 4117,
      "##iels": 4118,
      "##umor": 4119,
      "##istisch": 4120,
      "##ption": 4121,
      "außergewöhn": 4122,
      "existiert": 4123,
      "Ident": 4124,
      "Mö": 4125,
      "##sichtig": 4126,
      "##fs": 4127,
      "##eigt": 4128,
      "##geht": 4129,
      "##rak": 4130,
      "##ehrt": 4131,
      "##örung": 4132,
      "verkaufen": 4133,
      "jene": 4134,
      "Kommunikation": 4135,
      "Verantwortung": 4136,
      "Bank": 4137,
      "hart": 4138,
      "krei": 4139,
      "wesent": 4140,
      "##dig": 4141,
      "##frieden": 4142,
      "##eien": 4143,
      "##geg": 4144,
      "Ereig": 4145,
      "Instr": 4146,
      "jemandem": 4147,
      "behaup": 4148,
      "##fälle": 4149,
      "früh": 4150,
      "Intelligen": 4151,
      "ehrlich": 4152,
      "fällt": 4153,
      "##riere": 4154,
      "##renz": 4155,
      "##vie": 4156,
      "##bewer": 4157,
      "überleben": 4158,
      "##spl": 4159,
      "##icks": 4160,
      "##istor": 4161,
      "Strate": 4162,
      "unterschiedliche": 4163,
      "Finanz": 4164,
      "dauer": 4165,
      "##bol": 4166,
      "##öse": 4167,
      "##ierungs": 4168,
      "schicken": 4169,
      "##ehren": 4170,
      "Schwar": 4171,
      "Erstens": 4172,
      "Auge": 4173,
      "Zustand": 4174,
      "geschah": 4175,
      "prof": 4176,
      "##gefunden": 4177,
      "##alismus": 4178,
      "##gleichen": 4179,
      "Bedürf": 4180,
      "erfunden": 4181,
      "Veränderungen": 4182,
      "Nahrungs": 4183,
      "konzentrieren": 4184,
      "\"-": 4185,
      "Japan": 4186,
      "Kein": 4187,
      "Kol": 4188,
      "Trans": 4189,
      "Wichtig": 4190,
      "he": 4191,
      "kultur": 4192,
      "##äst": 4193,
      "##will": 4194,
      "##itive": 4195,
      "##geführt": 4196,
      "##urg": 4197,
      "##eutlich": 4198,
      "voraus": 4199,
      "einfachen": 4200,
      "Sommer": 4201,
      "Freunden": 4202,
      "Version": 4203,
      "unglaubliche": 4204,
      "Hy": 4205,
      "##krieg": 4206,
      "##prü": 4207,
      "##dings": 4208,
      "##urm": 4209,
      "verbringen": 4210,
      "##reib": 4211,
      "Arme": 4212,
      "Ansatz": 4213,
      "##rücken": 4214,
      "Worten": 4215,
      "Religion": 4216,
      "wählen": 4217,
      "##alle": 4218,
      "##ndet": 4219,
      "einsch": 4220,
      "##itann": 4221,
      "unabhäng": 4222,
      "##ilien": 4223,
      "##ierenden": 4224,
      "Projekte": 4225,
      "komme": 4226,
      "eigenes": 4227,
      "Werte": 4228,
      "##maß": 4229,
      "##gress": 4230,
      "##erstoff": 4231,
      "London": 4232,
      "gedacht": 4233,
      "Junge": 4234,
      "Ku": 4235,
      "Krie": 4236,
      "##mann": 4237,
      "##pekt": 4238,
      "##gän": 4239,
      "##brechen": 4240,
      "##bald": 4241,
      "##inos": 4242,
      "##raucht": 4243,
      "##räge": 4244,
      "behandeln": 4245,
      "Erkennt": 4246,
      "Männern": 4247,
      "Schönheit": 4248,
      "Nähe": 4249,
      "Ahnung": 4250,
      "Bio": 4251,
      "Mut": 4252,
      "##seite": 4253,
      "##lant": 4254,
      "##ober": 4255,
      "##enken": 4256,
      "##amb": 4257,
      "Schau": 4258,
      "Ange": 4259,
      "Spitze": 4260,
      "Überleben": 4261,
      "Westen": 4262,
      "##ourn": 4263,
      "Produkte": 4264,
      "öffnen": 4265,
      "Tieren": 4266,
      "dür": 4267,
      "selten": 4268,
      "##isiert": 4269,
      "sobald": 4270,
      "##rastruktur": 4271,
      "schn": 4272,
      "##ochter": 4273,
      "Schutz": 4274,
      "##ment": 4275,
      "##alisierung": 4276,
      "##mode": 4277,
      "Gelegenheit": 4278,
      "Verfügung": 4279,
      "Kommen": 4280,
      "Mir": 4281,
      "trifft": 4282,
      "##fter": 4283,
      "##stütz": 4284,
      "mitt": 4285,
      "##ennung": 4286,
      "Antworten": 4287,
      "Gehir": 4288,
      "Mond": 4289,
      "Biologie": 4290,
      "Materialien": 4291,
      "beeinflusst": 4292,
      "Drei": 4293,
      "Massen": 4294,
      "Wett": 4295,
      "bill": 4296,
      "##vel": 4297,
      "##stag": 4298,
      "##unkel": 4299,
      "Inner": 4300,
      "##egt": 4301,
      "nachhalt": 4302,
      "Region": 4303,
      "Verbindungen": 4304,
      "perfe": 4305,
      "Standard": 4306,
      "lernte": 4307,
      "Entw": 4308,
      "Wider": 4309,
      "ident": 4310,
      "kn": 4311,
      "herzustellen": 4312,
      "##webe": 4313,
      "Klasse": 4314,
      "wunderbar": 4315,
      "frühen": 4316,
      "##präsent": 4317,
      "positiv": 4318,
      "Nehmen": 4319,
      "Tochter": 4320,
      "##ka": 4321,
      "##gl": 4322,
      "##unsch": 4323,
      "verrückt": 4324,
      "Sauerstoff": 4325,
      "Fortschritt": 4326,
      "High": 4327,
      "Dort": 4328,
      "Pal": 4329,
      "Zelle": 4330,
      "##frage": 4331,
      "##stre": 4332,
      "gegangen": 4333,
      "Altern": 4334,
      "197": 4335,
      "##drücken": 4336,
      "kontrollieren": 4337,
      "Infrastruktur": 4338,
      "Kurz": 4339,
      "Wandel": 4340,
      "fallen": 4341,
      "##setzt": 4342,
      "##stadt": 4343,
      "##organis": 4344,
      "##orgung": 4345,
      "erzeugt": 4346,
      "##twick": 4347,
      "##oper": 4348,
      "größeren": 4349,
      "##itannien": 4350,
      "Pil": 4351,
      "emotion": 4352,
      "fangen": 4353,
      "##tra": 4354,
      "##abt": 4355,
      "##aul": 4356,
      "##auert": 4357,
      "Organ": 4358,
      "Kreativität": 4359,
      "Produktion": 4360,
      "Gesundheits": 4361,
      "##zusagen": 4362,
      "Eigenschaften": 4363,
      "Städten": 4364,
      "ursprü": 4365,
      "akzept": 4366,
      "Bäume": 4367,
      "erwähn": 4368,
      "angefangen": 4369,
      "24": 4370,
      "##ac": 4371,
      "##bieren": 4372,
      "##schutz": 4373,
      "genutzt": 4374,
      "##üsse": 4375,
      "fühle": 4376,
      "reagieren": 4377,
      "Text": 4378,
      "Privat": 4379,
      "Del": 4380,
      "Gang": 4381,
      "Opfer": 4382,
      "lust": 4383,
      "##hause": 4384,
      "##rot": 4385,
      "sow": 4386,
      "##neten": 4387,
      "gehe": 4388,
      "Phänomen": 4389,
      "##cebo": 4390,
      "überraschen": 4391,
      "Zentrum": 4392,
      "Polizei": 4393,
      "Jo": 4394,
      "chin": 4395,
      "zeich": 4396,
      "##ichtbar": 4397,
      "Eins": 4398,
      "Manche": 4399,
      "weiterhin": 4400,
      "Unterschiede": 4401,
      "Freude": 4402,
      "Physik": 4403,
      "Schluss": 4404,
      "##istenz": 4405,
      "häufig": 4406,
      "Fenster": 4407,
      "chines": 4408,
      "Dienst": 4409,
      "fehl": 4410,
      "##go": 4411,
      "##ID": 4412,
      "##stik": 4413,
      "##hlten": 4414,
      "seines": 4415,
      "spreche": 4416,
      "entsp": 4417,
      "begonnen": 4418,
      "Unterstütz": 4419,
      "größere": 4420,
      "Nichts": 4421,
      "Virus": 4422,
      "##wohner": 4423,
      "Profess": 4424,
      "Frank": 4425,
      "Tim": 4426,
      "west": 4427,
      "##rum": 4428,
      "##oc": 4429,
      "##ußer": 4430,
      "##weil": 4431,
      "##stes": 4432,
      "##stieg": 4433,
      "##text": 4434,
      "##techn": 4435,
      "sogen": 4436,
      "##ikas": 4437,
      "Sport": 4438,
      "Museum": 4439,
      "globale": 4440,
      "Farben": 4441,
      "Werkzeuge": 4442,
      "Vielfalt": 4443,
      "hört": 4444,
      "kämpfen": 4445,
      "ober": 4446,
      "online": 4447,
      "trau": 4448,
      "##bü": 4449,
      "##ergie": 4450,
      "verantwort": 4451,
      "##amp": 4452,
      "einfacher": 4453,
      "##britannien": 4454,
      "wichtigsten": 4455,
      "Atmo": 4456,
      "##konom": 4457,
      "Statist": 4458,
      "Los": 4459,
      "##kung": 4460,
      "fühlt": 4461,
      "brauchte": 4462,
      "gele": 4463,
      "##haltung": 4464,
      "Glas": 4465,
      "ermöglichen": 4466,
      "Ele": 4467,
      "Rand": 4468,
      "Will": 4469,
      "echt": 4470,
      "##het": 4471,
      "##sh": 4472,
      "##gier": 4473,
      "##schauen": 4474,
      "bezahl": 4475,
      "entstehen": 4476,
      "##stellte": 4477,
      "##zeichnen": 4478,
      "schlimm": 4479,
      "riesigen": 4480,
      "##aurier": 4481,
      "Gefühle": 4482,
      "Kann": 4483,
      "Rä": 4484,
      "Waffen": 4485,
      "notwend": 4486,
      "##erin": 4487,
      "##hre": 4488,
      "##orte": 4489,
      "aufgenommen": 4490,
      "##lecht": 4491,
      "##beweg": 4492,
      "entlang": 4493,
      "Schlag": 4494,
      "Interess": 4495,
      "Denk": 4496,
      "kompliz": 4497,
      "Vari": 4498,
      "kenne": 4499,
      "langen": 4500,
      "su": 4501,
      "##atter": 4502,
      "wirk": 4503,
      "##etr": 4504,
      "##anda": 4505,
      "##utlich": 4506,
      "Einsatz": 4507,
      "##rug": 4508,
      "Geschwindigkeit": 4509,
      "##riffen": 4510,
      "dorthin": 4511,
      "Materie": 4512,
      "Knochen": 4513,
      "Entwicklungsl": 4514,
      "Osten": 4515,
      "Port": 4516,
      "Seit": 4517,
      "kor": 4518,
      "nöt": 4519,
      "transp": 4520,
      "##seit": 4521,
      "Konferenz": 4522,
      "Beruf": 4523,
      "Ameisen": 4524,
      "Karten": 4525,
      "My": 4526,
      "Suche": 4527,
      "afrikan": 4528,
      "deutlich": 4529,
      "gilt": 4530,
      "##ain": 4531,
      "##ana": 4532,
      "##ged": 4533,
      "vertrau": 4534,
      "Ausdruck": 4535,
      "##geschlossen": 4536,
      "Durchschnitt": 4537,
      "Fernseh": 4538,
      "blie": 4539,
      "##fallen": 4540,
      "##irt": 4541,
      "##undament": 4542,
      "ließ": 4543,
      "irgendein": 4544,
      "##geschichte": 4545,
      "behandelt": 4546,
      "Rücken": 4547,
      "beeinflussen": 4548,
      "überras": 4549,
      "##minister": 4550,
      "Afghanistan": 4551,
      "Loch": 4552,
      "schaut": 4553,
      "##artig": 4554,
      "##istische": 4555,
      "Klassen": 4556,
      "Qualität": 4557,
      "Soldaten": 4558,
      "Neuronen": 4559,
      "Leidenschaft": 4560,
      "okay": 4561,
      "##gorit": 4562,
      "400": 4563,
      "Körp": 4564,
      "Sen": 4565,
      "##utt": 4566,
      "umzu": 4567,
      "Verm": 4568,
      "darf": 4569,
      "Blog": 4570,
      "##umente": 4571,
      "politischen": 4572,
      "erstaunlich": 4573,
      "Temperatur": 4574,
      "Zeichen": 4575,
      "Müll": 4576,
      "Botschaft": 4577,
      "Red": 4578,
      "Wunsch": 4579,
      "abst": 4580,
      "res": 4581,
      "typ": 4582,
      "##hö": 4583,
      "##otyp": 4584,
      "Gest": 4585,
      "##opul": 4586,
      "Gesellschaften": 4587,
      "##verl": 4588,
      "Kohlen": 4589,
      "Gewicht": 4590,
      "Großbritannien": 4591,
      "Todes": 4592,
      "Sekunde": 4593,
      "Ganz": 4594,
      "Hund": 4595,
      "Keine": 4596,
      "Nor": 4597,
      "Ziele": 4598,
      "hielt": 4599,
      "passen": 4600,
      "##acken": 4601,
      "##stab": 4602,
      "erstellen": 4603,
      "##leun": 4604,
      "##anke": 4605,
      "weiteres": 4606,
      "rede": 4607,
      "geschafft": 4608,
      "davor": 4609,
      "ganzes": 4610,
      "produziert": 4611,
      "##tember": 4612,
      "Facebo": 4613,
      "sex": 4614,
      "Kilometer": 4615,
      "ändert": 4616,
      "Facebook": 4617,
      "Dis": 4618,
      "Em": 4619,
      "Heil": 4620,
      "Zit": 4621,
      "##ron": 4622,
      "##ikal": 4623,
      "dagegen": 4624,
      "##bruch": 4625,
      "##atell": 4626,
      "Boot": 4627,
      "Verhaltens": 4628,
      "Fernsehen": 4629,
      "endlich": 4630,
      "Offen": 4631,
      "Szen": 4632,
      "nehme": 4633,
      "##hilfe": 4634,
      "##swer": 4635,
      "##cy": 4636,
      "##digen": 4637,
      "##erfen": 4638,
      "anal": 4639,
      "##rael": 4640,
      "Bef": 4641,
      "Ausbildung": 4642,
      "Teilchen": 4643,
      "seien": 4644,
      "perfekt": 4645,
      "politische": 4646,
      "Typen": 4647,
      "Perspekt": 4648,
      "David": 4649,
      "##ifornien": 4650,
      "##view": 4651,
      "Satz": 4652,
      "Titel": 4653,
      "buch": 4654,
      "kürz": 4655,
      "mat": 4656,
      "##ternehmen": 4657,
      "kostet": 4658,
      "##laden": 4659,
      "##akten": 4660,
      "##aktionen": 4661,
      "verkauft": 4662,
      "Bedingungen": 4663,
      "Zusammenhang": 4664,
      "stellten": 4665,
      "Werkzeug": 4666,
      "bloß": 4667,
      "Band": 4668,
      "Haar": 4669,
      "nütz": 4670,
      "sü": 4671,
      "##kauf": 4672,
      "##eise": 4673,
      "##osystem": 4674,
      "alleine": 4675,
      "##ektor": 4676,
      "Untersuch": 4677,
      "erlauben": 4678,
      "entsteht": 4679,
      "Sterne": 4680,
      "veröffentlicht": 4681,
      "Insekten": 4682,
      "Abst": 4683,
      "Brie": 4684,
      "Bitte": 4685,
      "Kunden": 4686,
      "Train": 4687,
      "gaben": 4688,
      "jün": 4689,
      "künst": 4690,
      "##bank": 4691,
      "verbl": 4692,
      "##okument": 4693,
      "See": 4694,
      "dritten": 4695,
      "solch": 4696,
      "2000": 4697,
      "Jede": 4698,
      "Karriere": 4699,
      "##alisieren": 4700,
      "##zeichen": 4701,
      "amerikanische": 4702,
      "##setzung": 4703,
      "erforschen": 4704,
      "Position": 4705,
      "Komplexität": 4706,
      "Eind": 4707,
      "Sal": 4708,
      "Wal": 4709,
      "tolle": 4710,
      "##nissen": 4711,
      "##SA": 4712,
      "##formen": 4713,
      "##iertel": 4714,
      "betrifft": 4715,
      "Mitglie": 4716,
      "196": 4717,
      "Web": 4718,
      "Aufgaben": 4719,
      "Gold": 4720,
      "Niemand": 4721,
      "##klärung": 4722,
      "Diskuss": 4723,
      "Bud": 4724,
      "Fün": 4725,
      "Hor": 4726,
      "Säu": 4727,
      "umgehen": 4728,
      "##omin": 4729,
      "##urcht": 4730,
      "Spiele": 4731,
      "gewonnen": 4732,
      "letztes": 4733,
      "Landwirtschaft": 4734,
      "Gemeinde": 4735,
      "Zusammenarbeit": 4736,
      "Result": 4737,
      "Jobs": 4738,
      "verursacht": 4739,
      "verfüg": 4740,
      "investieren": 4741,
      "Intelligenz": 4742,
      "Fein": 4743,
      "Journ": 4744,
      "chem": 4745,
      "drü": 4746,
      "leiden": 4747,
      "##pfl": 4748,
      "habt": 4749,
      "entschied": 4750,
      "Reich": 4751,
      "begeist": 4752,
      "legen": 4753,
      "##eidung": 4754,
      "Lebensmittel": 4755,
      "Spieler": 4756,
      "##gabe": 4757,
      "##mögen": 4758,
      "Schlaf": 4759,
      "Ökosystem": 4760,
      "##IDS": 4761,
      "Col": 4762,
      "Ei": 4763,
      "End": 4764,
      "Effekt": 4765,
      "Kop": 4766,
      "Ra": 4767,
      "Sehr": 4768,
      "##hei": 4769,
      "##sächlich": 4770,
      "##ou": 4771,
      "##üh": 4772,
      "##wahr": 4773,
      "##yl": 4774,
      "erfü": 4775,
      "spezi": 4776,
      "Spielen": 4777,
      "absch": 4778,
      "##ektion": 4779,
      "##losen": 4780,
      "vermutlich": 4781,
      "Korallen": 4782,
      "Gesetze": 4783,
      "Basis": 4784,
      "##krebs": 4785,
      "Vogel": 4786,
      "Unterstützung": 4787,
      "Fre": 4788,
      "Kir": 4789,
      "krank": 4790,
      "rel": 4791,
      "##ost": 4792,
      "##keln": 4793,
      "##üren": 4794,
      "saß": 4795,
      "klingt": 4796,
      "##rücke": 4797,
      "##appen": 4798,
      "beschreiben": 4799,
      "verdienen": 4800,
      "##indestens": 4801,
      "kommunizieren": 4802,
      "Atmosphäre": 4803,
      "Che": 4804,
      "Fach": 4805,
      "Holz": 4806,
      "Mc": 4807,
      "Wü": 4808,
      "iP": 4809,
      "krit": 4810,
      "zentr": 4811,
      "##dingt": 4812,
      "Vertrauen": 4813,
      "##zubringen": 4814,
      "Auft": 4815,
      "Zweitens": 4816,
      "Babys": 4817,
      "benötigen": 4818,
      "Bal": 4819,
      "Graf": 4820,
      "Sind": 4821,
      "leider": 4822,
      "##tr": 4823,
      "##mung": 4824,
      "##ling": 4825,
      "##gern": 4826,
      "##fisch": 4827,
      "inst": 4828,
      "dieselbe": 4829,
      "##ami": 4830,
      "schafft": 4831,
      "überzeugen": 4832,
      "überzeugt": 4833,
      "##riffe": 4834,
      "Mex": 4835,
      "Organisationen": 4836,
      "handeln": 4837,
      "Jugend": 4838,
      "##impan": 4839,
      "Deut": 4840,
      "Fabr": 4841,
      "Satell": 4842,
      "##vollen": 4843,
      "##arch": 4844,
      "##bereich": 4845,
      "##rah": 4846,
      "Erzähl": 4847,
      "Ans": 4848,
      "Beste": 4849,
      "##ährung": 4850,
      "##artige": 4851,
      "##ndete": 4852,
      "entwickelten": 4853,
      "##gewicht": 4854,
      "Universums": 4855,
      "Drittel": 4856,
      "##führer": 4857,
      "selber": 4858,
      "Hintergrund": 4859,
      "erklärt": 4860,
      "Identität": 4861,
      "Bett": 4862,
      "City": 4863,
      "Nutzen": 4864,
      "Rat": 4865,
      "Tel": 4866,
      "##gra": 4867,
      "##ettet": 4868,
      "##recher": 4869,
      "Stoff": 4870,
      "Schimpan": 4871,
      "Rede": 4872,
      "wiederum": 4873,
      "Problemen": 4874,
      "##folgt": 4875,
      "erstes": 4876,
      "##holt": 4877,
      "unbedingt": 4878,
      "Strukturen": 4879,
      "Brot": 4880,
      "benötigt": 4881,
      "##zwischen": 4882,
      "wunderschön": 4883,
      "Vö": 4884,
      "haupt": 4885,
      "krie": 4886,
      "##mel": 4887,
      "##industrie": 4888,
      "##rand": 4889,
      "Stär": 4890,
      "Einfach": 4891,
      "##ada": 4892,
      "##lafen": 4893,
      "Autor": 4894,
      "##richtung": 4895,
      "##how": 4896,
      "Schwier": 4897,
      "Gründen": 4898,
      "Null": 4899,
      "Kontakt": 4900,
      "Plastik": 4901,
      "lautet": 4902,
      "Zwe": 4903,
      "##dit": 4904,
      "##gument": 4905,
      "##frist": 4906,
      "Statt": 4907,
      "##halte": 4908,
      "Austr": 4909,
      "Zuerst": 4910,
      "Handy": 4911,
      "##wirken": 4912,
      "erwartet": 4913,
      "West": 4914,
      "the": 4915,
      "##fält": 4916,
      "##ong": 4917,
      "Schmerz": 4918,
      "##omat": 4919,
      "##otograf": 4920,
      "spiel": 4921,
      "Zug": 4922,
      "##ppen": 4923,
      "Genom": 4924,
      "Stein": 4925,
      "##ice": 4926,
      "Großteil": 4927,
      "Colle": 4928,
      "falsche": 4929,
      "Herausforderungen": 4930,
      "beschäftigt": 4931,
      "mittler": 4932,
      "Akt": 4933,
      "AIDS": 4934,
      "Fische": 4935,
      "Ken": 4936,
      "Rom": 4937,
      "Tau": 4938,
      "nutz": 4939,
      "äußer": 4940,
      "##oge": 4941,
      "##zur": 4942,
      "##ash": 4943,
      "##anzie": 4944,
      "##ames": 4945,
      "aussch": 4946,
      "##ätsel": 4947,
      "##angt": 4948,
      "Zusch": 4949,
      "##pfel": 4950,
      "besitzen": 4951,
      "verbreitet": 4952,
      "##frika": 4953,
      "##ington": 4954,
      "drehen": 4955,
      "außerdem": 4956,
      "schöne": 4957,
      "Fällen": 4958,
      "zufällig": 4959,
      "buchstä": 4960,
      "Masse": 4961,
      "mindestens": 4962,
      "##tert": 4963,
      "geführt": 4964,
      "##osoph": 4965,
      "durchgeführt": 4966,
      "##fügen": 4967,
      "kons": 4968,
      "neuer": 4969,
      "hinweg": 4970,
      "##plan": 4971,
      "##schlä": 4972,
      "fragten": 4973,
      "##zusehen": 4974,
      "modernen": 4975,
      "Fest": 4976,
      "Tw": 4977,
      "sorgen": 4978,
      "##mutter": 4979,
      "##markt": 4980,
      "##ox": 4981,
      "##zeiten": 4982,
      "##arb": 4983,
      "stecken": 4984,
      "##aster": 4985,
      "Bildungs": 4986,
      "entwerfen": 4987,
      "##eligi": 4988,
      "##oppelt": 4989,
      "wissenschaftliche": 4990,
      "Affen": 4991,
      "Elektr": 4992,
      "Fel": 4993,
      "bitten": 4994,
      "mot": 4995,
      "nation": 4996,
      "wirst": 4997,
      "##amin": 4998,
      "Schiff": 4999,
      "Proje": 5000,
      "##ördern": 5001,
      "##adem": 5002,
      "##stellungs": 5003,
      "herausgefunden": 5004,
      "Bildschirm": 5005,
      "Geräte": 5006,
      "sicherlich": 5007,
      "dreht": 5008,
      "vollkommen": 5009,
      "Objekte": 5010,
      "Gegenteil": 5011,
      "unterschiedlichen": 5012,
      "rechten": 5013,
      "kümmern": 5014,
      "Motor": 5015,
      "Institutionen": 5016,
      "Präsident": 5017,
      "As": 5018,
      "Beine": 5019,
      "Dir": 5020,
      "Mos": 5021,
      "grau": 5022,
      "tausende": 5023,
      "usw": 5024,
      "##ügel": 5025,
      "##eils": 5026,
      "zuk": 5027,
      "verlie": 5028,
      "##perimen": 5029,
      "##röß": 5030,
      "gelangen": 5031,
      "getö": 5032,
      "##platz": 5033,
      "gestalten": 5034,
      "##ächtnis": 5035,
      "##hältnis": 5036,
      "töten": 5037,
      "Kalifornien": 5038,
      "übertragen": 5039,
      "irgendwann": 5040,
      ",\"": 5041,
      "Bri": 5042,
      "Hil": 5043,
      "Mach": 5044,
      "Neben": 5045,
      "Rahmen": 5046,
      "Zur": 5047,
      "sitzt": 5048,
      "##ca": 5049,
      "##kr": 5050,
      "##isierung": 5051,
      "antwor": 5052,
      "bezahlen": 5053,
      "Gefahr": 5054,
      "##ford": 5055,
      "Kontext": 5056,
      "##front": 5057,
      "individu": 5058,
      "Kindheit": 5059,
      "Milliarde": 5060,
      "Bildern": 5061,
      "Modelle": 5062,
      "England": 5063,
      "Golf": 5064,
      "Wahrscheinlichkeit": 5065,
      "##aptop": 5066,
      "buchstäblich": 5067,
      "Laptop": 5068,
      "Mobil": 5069,
      "Sein": 5070,
      "Sil": 5071,
      "läch": 5072,
      "sinn": 5073,
      "##sse": 5074,
      "##kle": 5075,
      "##ieß": 5076,
      "##ieben": 5077,
      "##testen": 5078,
      "##iertes": 5079,
      "##anne": 5080,
      "Schwei": 5081,
      "werfen": 5082,
      "##änn": 5083,
      "beteil": 5084,
      "##hafte": 5085,
      "Abs": 5086,
      "150": 5087,
      "weder": 5088,
      "Militär": 5089,
      "öffentliche": 5090,
      "Lu": 5091,
      "Online": 5092,
      "Sorgen": 5093,
      "disk": 5094,
      "wächst": 5095,
      "öffentlich": 5096,
      "##imal": 5097,
      "derzeit": 5098,
      "Verkehr": 5099,
      "anderem": 5100,
      "##ruf": 5101,
      "repräsent": 5102,
      "##haben": 5103,
      "Falls": 5104,
      "Videos": 5105,
      "hohen": 5106,
      "Glob": 5107,
      "zukünft": 5108,
      "Iran": 5109,
      "Irak": 5110,
      "Norden": 5111,
      "abl": 5112,
      "rad": 5113,
      "##idem": 5114,
      "##chern": 5115,
      "##stu": 5116,
      "##onom": 5117,
      "##isation": 5118,
      "ausl": 5119,
      "auseinander": 5120,
      "Stift": 5121,
      "Spekt": 5122,
      "##achtung": 5123,
      "steckt": 5124,
      "##istischen": 5125,
      "lieber": 5126,
      "glaubt": 5127,
      "bestimmen": 5128,
      "##quenzen": 5129,
      "Elem": 5130,
      "##ausenden": 5131,
      "Experten": 5132,
      "Themen": 5133,
      "##führung": 5134,
      "Besonder": 5135,
      "##aurant": 5136,
      "Konflikt": 5137,
      "##forschung": 5138,
      "dürfen": 5139,
      "überrascht": 5140,
      "Paar": 5141,
      "laut": 5142,
      "Öffentlich": 5143,
      "är": 5144,
      "##tu": 5145,
      "##kn": 5146,
      "##äbe": 5147,
      "##inken": 5148,
      "##ehnt": 5149,
      "sozusagen": 5150,
      "##lege": 5151,
      "zurückzu": 5152,
      "##fahrt": 5153,
      "verwandeln": 5154,
      "einsetzen": 5155,
      "##gendetwas": 5156,
      "Aktivität": 5157,
      "natürliche": 5158,
      "täglich": 5159,
      "##inosaurier": 5160,
      "Kohlenstoff": 5161,
      "Lern": 5162,
      "Samm": 5163,
      "##trag": 5164,
      "##orien": 5165,
      "daß": 5166,
      "gesund": 5167,
      "##steller": 5168,
      "##stellten": 5169,
      "##klus": 5170,
      "##aterial": 5171,
      "Wahrnehm": 5172,
      "Staat": 5173,
      "Patient": 5174,
      "erhält": 5175,
      "Kaffe": 5176,
      "Volk": 5177,
      "##herapie": 5178,
      "Leistung": 5179,
      "getötet": 5180,
      "Rich": 5181,
      "hängt": 5182,
      "religi": 5183,
      "tue": 5184,
      "##iden": 5185,
      "##ara": 5186,
      "##atoren": 5187,
      "##urf": 5188,
      "eröff": 5189,
      "aufw": 5190,
      "Außen": 5191,
      "##geladen": 5192,
      "verwir": 5193,
      "##aktiv": 5194,
      "Brenn": 5195,
      "Forscher": 5196,
      "Bruder": 5197,
      "Heimat": 5198,
      "35": 5199,
      "Com": 5200,
      "Liter": 5201,
      "Maus": 5202,
      "Nan": 5203,
      "Sei": 5204,
      "fragt": 5205,
      "ignor": 5206,
      "##iste": 5207,
      "##swert": 5208,
      "##port": 5209,
      "##band": 5210,
      "scheinen": 5211,
      "wohin": 5212,
      "Fleisch": 5213,
      "##programm": 5214,
      "Filme": 5215,
      "Sprachen": 5216,
      "Metap": 5217,
      "Forschungs": 5218,
      "existieren": 5219,
      "Hey": 5220,
      "priv": 5221,
      "Wettbewer": 5222,
      "Hung": 5223,
      "frage": 5224,
      "Änder": 5225,
      "schick": 5226,
      "##ags": 5227,
      "steigen": 5228,
      "weiss": 5229,
      "interessieren": 5230,
      "interessanter": 5231,
      "##teilung": 5232,
      "##ibel": 5233,
      "Vision": 5234,
      "Quadrat": 5235,
      "Professor": 5236,
      "hauptsächlich": 5237,
      "Jungs": 5238,
      "Lang": 5239,
      "MI": 5240,
      "Meilen": 5241,
      "Nutz": 5242,
      "##ritten": 5243,
      "##sinn": 5244,
      "##gs": 5245,
      "eingesetzt": 5246,
      "##auchen": 5247,
      "verbracht": 5248,
      "mitten": 5249,
      "Anw": 5250,
      "stolz": 5251,
      "gewisse": 5252,
      "Klein": 5253,
      "Algorit": 5254,
      "Impf": 5255,
      "Augenblick": 5256,
      "Temp": 5257,
      "Erinnerung": 5258,
      "Galaxien": 5259,
      "Nerven": 5260,
      "mathemat": 5261,
      "Bom": 5262,
      "Dinosaurier": 5263,
      "Ed": 5264,
      "Ecke": 5265,
      "Log": 5266,
      "Zimmer": 5267,
      "dunk": 5268,
      "nannte": 5269,
      "teuer": 5270,
      "##pft": 5271,
      "##uern": 5272,
      "##anst": 5273,
      "##schau": 5274,
      "##alte": 5275,
      "verfolgen": 5276,
      "begeg": 5277,
      "Schei": 5278,
      "stelle": 5279,
      "Sep": 5280,
      "nächstes": 5281,
      "Depress": 5282,
      "##alisiert": 5283,
      "versuchten": 5284,
      "Radio": 5285,
      "testen": 5286,
      "Moleküle": 5287,
      "Fett": 5288,
      "Mem": 5289,
      "bieten": 5290,
      "deinen": 5291,
      "sauber": 5292,
      "##bahn": 5293,
      "##fangen": 5294,
      "Verw": 5295,
      "irgendetwas": 5296,
      "erzähle": 5297,
      "letztendlich": 5298,
      "finanzie": 5299,
      "hohe": 5300,
      "Katastrop": 5301,
      "erinnert": 5302,
      "gefährlich": 5303,
      "Außerdem": 5304,
      "Journal": 5305,
      "Ehe": 5306,
      "Mechan": 5307,
      "kennt": 5308,
      "##macht": 5309,
      "##zy": 5310,
      "##ämpf": 5311,
      "##schm": 5312,
      "schlie": 5313,
      "##wood": 5314,
      "##wegs": 5315,
      "gegenseit": 5316,
      "Phys": 5317,
      "Lied": 5318,
      "Begriff": 5319,
      "Folge": 5320,
      "Stress": 5321,
      "schwarz": 5322,
      "##maschine": 5323,
      "##gänglich": 5324,
      "Frem": 5325,
      "NA": 5326,
      "UN": 5327,
      "neg": 5328,
      "somit": 5329,
      "##ckten": 5330,
      "schien": 5331,
      "ausgeb": 5332,
      "##reite": 5333,
      "durchschnitt": 5334,
      "Sozial": 5335,
      "regel": 5336,
      "Ausw": 5337,
      "##reuz": 5338,
      "arbeiteten": 5339,
      "interagieren": 5340,
      "möglicherweise": 5341,
      "##kehren": 5342,
      "Restaurant": 5343,
      "Experimente": 5344,
      "Führung": 5345,
      "schaute": 5346,
      "begeistert": 5347,
      "Satelliten": 5348,
      "Öffentlichkeit": 5349,
      "oh": 5350,
      "virt": 5351,
      "zunehmen": 5352,
      "eint": 5353,
      "schließen": 5354,
      "könnt": 5355,
      "Landschaft": 5356,
      "besseren": 5357,
      "vollständig": 5358,
      "starb": 5359,
      "halte": 5360,
      "entworfen": 5361,
      "gross": 5362,
      "basiert": 5363,
      "Elektro": 5364,
      "Gespräch": 5365,
      "Perspektive": 5366,
      "September": 5367,
      "Fig": 5368,
      "Haufen": 5369,
      "Häuser": 5370,
      "Pa": 5371,
      "Rätsel": 5372,
      "Sitz": 5373,
      "##hör": 5374,
      "##ahe": 5375,
      "##fragen": 5376,
      "##ichts": 5377,
      "verein": 5378,
      "Gewebe": 5379,
      "nochmal": 5380,
      "gehabt": 5381,
      "##riz": 5382,
      "Grenze": 5383,
      "Zuhause": 5384,
      "Steuer": 5385,
      "lebte": 5386,
      "wichtigste": 5387,
      "meistens": 5388,
      "schlimmer": 5389,
      "Folgendes": 5390,
      "Bauern": 5391,
      "absol": 5392,
      "bemerkt": 5393,
      "Mission": 5394,
      "vorhanden": 5395,
      "Laufe": 5396,
      "##modell": 5397,
      "verantwortlich": 5398,
      "Asp": 5399,
      "Ama": 5400,
      "Ox": 5401,
      "fotograf": 5402,
      "rück": 5403,
      "##üten": 5404,
      "##kor": 5405,
      "##dimension": 5406,
      "##bliche": 5407,
      "einst": 5408,
      "einiger": 5409,
      "##etrie": 5410,
      "Erleb": 5411,
      "Weltraum": 5412,
      "##spielen": 5413,
      "##ändert": 5414,
      "Schwester": 5415,
      "Trend": 5416,
      "präsent": 5417,
      "vorhers": 5418,
      "holen": 5419,
      "Lieblings": 5420,
      "Richard": 5421,
      "Händen": 5422,
      "Ke": 5423,
      "Kombin": 5424,
      "Sens": 5425,
      "gäbe": 5426,
      "##ils": 5427,
      "##sweise": 5428,
      "##asste": 5429,
      "##scher": 5430,
      "verr": 5431,
      "##omit": 5432,
      "Innen": 5433,
      "##ingu": 5434,
      "##zelle": 5435,
      "herr": 5436,
      "gehalten": 5437,
      "dennoch": 5438,
      "##richtungen": 5439,
      "finanz": 5440,
      "Israel": 5441,
      "##ails": 5442,
      "engl": 5443,
      "praktisch": 5444,
      "Diagramm": 5445,
      "##schule": 5446,
      "Schimpansen": 5447,
      "ag": 5448,
      "meist": 5449,
      "##nimmt": 5450,
      "##ügen": 5451,
      "erl": 5452,
      "##leg": 5453,
      "anges": 5454,
      "angew": 5455,
      "Dass": 5456,
      "Verg": 5457,
      "Beweis": 5458,
      "##heorie": 5459,
      "Zeitalter": 5460,
      "##verständ": 5461,
      "Komm": 5462,
      "bekamen": 5463,
      "##echtigkeit": 5464,
      "gestern": 5465,
      "Defin": 5466,
      "Bras": 5467,
      "normalen": 5468,
      "halb": 5469,
      "Eigentlich": 5470,
      "linken": 5471,
      "kurze": 5472,
      "stärker": 5473,
      "gewisser": 5474,
      "Erkenntnis": 5475,
      "entspricht": 5476,
      "Eindruck": 5477,
      "College": 5478,
      "Gar": 5479,
      "Nationen": 5480,
      "Zä": 5481,
      "dauert": 5482,
      "zog": 5483,
      "##iag": 5484,
      "##ühr": 5485,
      "##eiger": 5486,
      "##schlagen": 5487,
      "erster": 5488,
      "aufbauen": 5489,
      "Schne": 5490,
      "##hlung": 5491,
      "Inhalt": 5492,
      "##abl": 5493,
      "abhäng": 5494,
      "Wash": 5495,
      "##ädt": 5496,
      "Obwohl": 5497,
      "Code": 5498,
      "verhindern": 5499,
      "Andere": 5500,
      "Führungs": 5501,
      "unterscheiden": 5502,
      "##mäßig": 5503,
      "beantworten": 5504,
      "Bein": 5505,
      "Fehl": 5506,
      "Jul": 5507,
      "Krise": 5508,
      "Mund": 5509,
      "Mütter": 5510,
      "setzt": 5511,
      "##kan": 5512,
      "##cks": 5513,
      "aufs": 5514,
      "angesehen": 5515,
      "schönen": 5516,
      "##spiels": 5517,
      "Beob": 5518,
      "Ihres": 5519,
      "##immung": 5520,
      "##problem": 5521,
      "wunderbare": 5522,
      "##wärt": 5523,
      "Verletz": 5524,
      "Tests": 5525,
      "entstanden": 5526,
      "reduzieren": 5527,
      "Individuen": 5528,
      "lustig": 5529,
      "Körpers": 5530,
      "Con": 5531,
      "Tausende": 5532,
      "Wesent": 5533,
      "kap": 5534,
      "##ail": 5535,
      "##gyp": 5536,
      "##vard": 5537,
      "##aust": 5538,
      "##eting": 5539,
      "schm": 5540,
      "##agiert": 5541,
      "Stimmen": 5542,
      "demokrat": 5543,
      "Insel": 5544,
      "Verbr": 5545,
      "##ogn": 5546,
      "eigent": 5547,
      "##itteln": 5548,
      "allerdings": 5549,
      "Bewegungen": 5550,
      "##zusetzen": 5551,
      "unterschiedlich": 5552,
      "Website": 5553,
      "kreativ": 5554,
      "Washington": 5555,
      "Ol": 5556,
      "Opt": 5557,
      "Tre": 5558,
      "el": 5559,
      "hunderte": 5560,
      "kauf": 5561,
      "##ekte": 5562,
      "##af": 5563,
      "##ace": 5564,
      "##fische": 5565,
      "##ielle": 5566,
      "##agement": 5567,
      "umge": 5568,
      "hergestellt": 5569,
      "##ulen": 5570,
      "amp": 5571,
      "Gras": 5572,
      "Orig": 5573,
      "ließen": 5574,
      "Klang": 5575,
      "genauer": 5576,
      "benutz": 5577,
      "Mitarbeiter": 5578,
      "Minute": 5579,
      "schlechter": 5580,
      "##pret": 5581,
      "Quanten": 5582,
      "erkannte": 5583,
      "##swesen": 5584,
      "##fähigkeit": 5585,
      "total": 5586,
      "Entdeckung": 5587,
      "effektiv": 5588,
      "45": 5589,
      "Dab": 5590,
      "Empf": 5591,
      "Gi": 5592,
      "Laden": 5593,
      "Ter": 5594,
      "Tie": 5595,
      "##hers": 5596,
      "##affe": 5597,
      "##blichkeit": 5598,
      "##unken": 5599,
      "##gegeben": 5600,
      "##rechte": 5601,
      "##eilt": 5602,
      "##flächen": 5603,
      "##ologisch": 5604,
      "Zucker": 5605,
      "Chir": 5606,
      "wenigen": 5607,
      "##rinken": 5608,
      "Mail": 5609,
      "Lebe": 5610,
      "Naja": 5611,
      "Welche": 5612,
      "Irgend": 5613,
      "Twitter": 5614,
      "Etwas": 5615,
      "##meister": 5616,
      "##lös": 5617,
      "##ietet": 5618,
      "##test": 5619,
      "erfinden": 5620,
      "verf": 5621,
      "aufger": 5622,
      "aufhören": 5623,
      "##eucht": 5624,
      "##edig": 5625,
      "klass": 5626,
      "##hmus": 5627,
      "##ordnung": 5628,
      "##echseln": 5629,
      "wichtigen": 5630,
      "brachten": 5631,
      "Epidem": 5632,
      "##pagne": 5633,
      "Dabei": 5634,
      "Atem": 5635,
      "Niger": 5636,
      "Show": 5637,
      "Tun": 5638,
      "Tor": 5639,
      "dran": 5640,
      "nutzt": 5641,
      "##netz": 5642,
      "##cis": 5643,
      "##afrika": 5644,
      "##yse": 5645,
      "##schrift": 5646,
      "##itieren": 5647,
      "##ischt": 5648,
      "##utze": 5649,
      "heran": 5650,
      "##ähren": 5651,
      "##rid": 5652,
      "müsste": 5653,
      "Wieso": 5654,
      "Kohle": 5655,
      "musst": 5656,
      "Deb": 5657,
      "Gleiche": 5658,
      "##äuse": 5659,
      "Medikament": 5660,
      "Trotz": 5661,
      "Prototyp": 5662,
      "Garten": 5663,
      "Normal": 5664,
      "Pak": 5665,
      "Pfer": 5666,
      "Zell": 5667,
      "fiel": 5668,
      "fäh": 5669,
      "fördern": 5670,
      "kom": 5671,
      "rei": 5672,
      "roten": 5673,
      "tausend": 5674,
      "##ierer": 5675,
      "School": 5676,
      "##erne": 5677,
      "Verstand": 5678,
      "##rippe": 5679,
      "gelesen": 5680,
      "Abschluss": 5681,
      "##ica": 5682,
      "gestorben": 5683,
      "Gemeinden": 5684,
      "Gedanke": 5685,
      "##fordert": 5686,
      "hoffen": 5687,
      "starten": 5688,
      "starke": 5689,
      "normale": 5690,
      "Folgen": 5691,
      "Politiker": 5692,
      "reichen": 5693,
      "Rechte": 5694,
      "Hallo": 5695,
      "Australien": 5696,
      "diskut": 5697,
      "Bon": 5698,
      "Hyp": 5699,
      "Kräfte": 5700,
      "mass": 5701,
      "tr": 5702,
      "Ägyp": 5703,
      "##pte": 5704,
      "##freu": 5705,
      "##geber": 5706,
      "vergleichen": 5707,
      "##ions": 5708,
      "ausb": 5709,
      "Stau": 5710,
      "überle": 5711,
      "##igend": 5712,
      "##osm": 5713,
      "##oth": 5714,
      "Geschlecht": 5715,
      "##indert": 5716,
      "Beim": 5717,
      "entwickelte": 5718,
      "Tex": 5719,
      "Gegensatz": 5720,
      "hoffentlich": 5721,
      "Toil": 5722,
      "Operation": 5723,
      "Gehirne": 5724,
      "analys": 5725,
      "Elemente": 5726,
      "99": 5727,
      "Fle": 5728,
      "Jemand": 5729,
      "Pfl": 5730,
      "zahlen": 5731,
      "##MS": 5732,
      "##rafen": 5733,
      "schlagen": 5734,
      "##ike": 5735,
      "##ulieren": 5736,
      "##antas": 5737,
      "##spieler": 5738,
      "Flag": 5739,
      "Wellen": 5740,
      "Jeden": 5741,
      "##zentrum": 5742,
      "##ohnt": 5743,
      "Kontin": 5744,
      "verschwinden": 5745,
      "integr": 5746,
      "erlebt": 5747,
      "Methoden": 5748,
      "beinhal": 5749,
      "Elektriz": 5750,
      "stammt": 5751,
      ".,": 5752,
      "Gas": 5753,
      "Tanz": 5754,
      "la": 5755,
      "par": 5756,
      "##hört": 5757,
      "##sätzlich": 5758,
      "##igsten": 5759,
      "aufgew": 5760,
      "##erseits": 5761,
      "##werden": 5762,
      "brauchten": 5763,
      "Geräusch": 5764,
      "Atom": 5765,
      "Gesundheitswesen": 5766,
      "Hinsicht": 5767,
      "##skop": 5768,
      "Post": 5769,
      "Mikroben": 5770,
      "Viren": 5771,
      "Fünf": 5772,
      "relativ": 5773,
      "Zuschauer": 5774,
      "abhängig": 5775,
      "Ganze": 5776,
      "körper": 5777,
      "##up": 5778,
      "eindeut": 5779,
      "wieso": 5780,
      "schlau": 5781,
      "##ffer": 5782,
      "##ruption": 5783,
      "vieler": 5784,
      "##artigen": 5785,
      "begrenz": 5786,
      "##weich": 5787,
      "brauche": 5788,
      "##gewalt": 5789,
      "behalten": 5790,
      "Buchsta": 5791,
      "kurzem": 5792,
      "##ografie": 5793,
      "##möglichkeiten": 5794,
      "sprachen": 5795,
      "wissenschaftlichen": 5796,
      "Wohlstand": 5797,
      "kurzen": 5798,
      "Arbeiten": 5799,
      "Elektrizität": 5800,
      "Batter": 5801,
      "Emot": 5802,
      "Fakten": 5803,
      "Lachen": 5804,
      "zunächst": 5805,
      "##asi": 5806,
      "zugänglich": 5807,
      "Verhältnis": 5808,
      "##reien": 5809,
      "##reisen": 5810,
      "##rauchen": 5811,
      "Ansicht": 5812,
      "Spiegel": 5813,
      "welchen": 5814,
      "Klin": 5815,
      "beschlossen": 5816,
      "beschloss": 5817,
      "##plant": 5818,
      "Organismen": 5819,
      "Besitz": 5820,
      "morgens": 5821,
      "Brasilien": 5822,
      "Blau": 5823,
      "Gü": 5824,
      "las": 5825,
      "meiste": 5826,
      "##res": 5827,
      "außen": 5828,
      "annehmen": 5829,
      "spannen": 5830,
      "Vorfahren": 5831,
      "programm": 5832,
      "verbreiten": 5833,
      "Nachdem": 5834,
      "wahre": 5835,
      "##ständen": 5836,
      "Netzwerke": 5837,
      "Solar": 5838,
      "Kapit": 5839,
      "DNS": 5840,
      "beschäftigen": 5841,
      "Schnitt": 5842,
      "Details": 5843,
      "identif": 5844,
      "bezahlt": 5845,
      "Grafik": 5846,
      "Wahrnehmung": 5847,
      "Lebewesen": 5848,
      "Emotionen": 5849,
      "3D": 5850,
      "Fischer": 5851,
      "Krit": 5852,
      "Persön": 5853,
      "echten": 5854,
      "histor": 5855,
      "männ": 5856,
      "##sb": 5857,
      "inf": 5858,
      "ungewöhn": 5859,
      "Proz": 5860,
      "vorber": 5861,
      "Angel": 5862,
      "stop": 5863,
      "##riften": 5864,
      "##bares": 5865,
      "lebten": 5866,
      "experimen": 5867,
      "Existenz": 5868,
      "##schland": 5869,
      "##umenten": 5870,
      "Korruption": 5871,
      "Generationen": 5872,
      "Streit": 5873,
      "komplexe": 5874,
      "persönlich": 5875,
      "verbrachte": 5876,
      "##verbrauch": 5877,
      "##vention": 5878,
      "##gruppe": 5879,
      "##amerika": 5880,
      "nötig": 5881,
      "Ap": 5882,
      "Hote": 5883,
      "Roll": 5884,
      "Sam": 5885,
      "fängt": 5886,
      "passt": 5887,
      "rie": 5888,
      "trägt": 5889,
      "##rasch": 5890,
      "##hi": 5891,
      "##mord": 5892,
      "##fil": 5893,
      "##wach": 5894,
      "##wagen": 5895,
      "##ember": 5896,
      "##ischem": 5897,
      "##andt": 5898,
      "##ologe": 5899,
      "Schatten": 5900,
      "Einstein": 5901,
      "##ogar": 5902,
      "klin": 5903,
      "gehören": 5904,
      "##estern": 5905,
      "Unternehmer": 5906,
      "##kosten": 5907,
      "Theater": 5908,
      "erscheinen": 5909,
      "Islam": 5910,
      "Erkrank": 5911,
      "medizinische": 5912,
      "##öpfe": 5913,
      "Elef": 5914,
      "kürzlich": 5915,
      "MIT": 5916,
      "Ill": 5917,
      "Mu": 5918,
      "Sl": 5919,
      "Wik": 5920,
      "Wetter": 5921,
      "en": 5922,
      "eure": 5923,
      "ruh": 5924,
      "zeit": 5925,
      "zahl": 5926,
      "##dlichen": 5927,
      "##frau": 5928,
      "##ones": 5929,
      "##llekt": 5930,
      "darstellen": 5931,
      "steigt": 5932,
      "nieder": 5933,
      "geschickt": 5934,
      "gering": 5935,
      "verwende": 5936,
      "beschleun": 5937,
      "##aturen": 5938,
      "heißen": 5939,
      "Staats": 5940,
      "Vorteil": 5941,
      "Linien": 5942,
      "beobachtet": 5943,
      "schwarze": 5944,
      "Harvard": 5945,
      "studieren": 5946,
      "aufregend": 5947,
      "Francis": 5948,
      "Komment": 5949,
      "Tom": 5950,
      "zählen": 5951,
      "##tin": 5952,
      "##ld": 5953,
      "##akte": 5954,
      "##ehnen": 5955,
      "vergangen": 5956,
      "bewer": 5957,
      "geändert": 5958,
      "##oment": 5959,
      "Erklärung": 5960,
      "wobei": 5961,
      "##issenschaft": 5962,
      "entgegen": 5963,
      "##zieht": 5964,
      "Doktor": 5965,
      "optim": 5966,
      "dram": 5967,
      "fuhr": 5968,
      "setzte": 5969,
      "##tial": 5970,
      "##mon": 5971,
      "##muster": 5972,
      "##ates": 5973,
      "##dru": 5974,
      "##zon": 5975,
      "##jahr": 5976,
      "##stau": 5977,
      "erstellt": 5978,
      "angeb": 5979,
      "##usion": 5980,
      "##umb": 5981,
      "Armen": 5982,
      "Beweise": 5983,
      "Ausmaß": 5984,
      "Interessen": 5985,
      "Kapital": 5986,
      "##spruch": 5987,
      "Milch": 5988,
      "Architekten": 5989,
      "Kerl": 5990,
      "grundlegende": 5991,
      "erwähnt": 5992,
      "blieb": 5993,
      "verfügbar": 5994,
      "Teles": 5995,
      "Bahn": 5996,
      "leid": 5997,
      "train": 5998,
      "##üge": 5999,
      "##kat": 6000,
      "##onstr": 6001,
      "##tere": 6002,
      "unge": 6003,
      "anwenden": 6004,
      "Schlei": 6005,
      "##rufen": 6006,
      "müssten": 6007,
      "Weile": 6008,
      "Planet": 6009,
      "halbe": 6010,
      "Fälle": 6011,
      "zerstört": 6012,
      "enorm": 6013,
      "beinahe": 6014,
      "Konflik": 6015,
      "Wolken": 6016,
      "Entwicklungsländern": 6017,
      "drüben": 6018,
      "Deutschland": 6019,
      "600": 6020,
      "?“": 6021,
      "Cent": 6022,
      "Dach": 6023,
      "Hei": 6024,
      "Kreuz": 6025,
      "Les": 6026,
      "Russ": 6027,
      "wuchs": 6028,
      "##talien": 6029,
      "##mitt": 6030,
      "##oßen": 6031,
      "##von": 6032,
      "##IP": 6033,
      "##ston": 6034,
      "##uman": 6035,
      "vorne": 6036,
      "Anrei": 6037,
      "stabil": 6038,
      "##bliot": 6039,
      "entsprechen": 6040,
      "Konse": 6041,
      "Vorstellungs": 6042,
      "Umfeld": 6043,
      "##klen": 6044,
      "Teen": 6045,
      "Bereiche": 6046,
      "Größen": 6047,
      "##imensionen": 6048,
      "Jahrzehnt": 6049,
      "Würde": 6050,
      "Nachbarn": 6051,
      "traditionellen": 6052,
      "Strategie": 6053,
      "Times": 6054,
      "Mexiko": 6055,
      "spielte": 6056,
      "Kaffee": 6057,
      "Aspekt": 6058,
      "Wurz": 6059,
      "fern": 6060,
      "geist": 6061,
      "miss": 6062,
      "##passt": 6063,
      "##by": 6064,
      "##euert": 6065,
      "##olly": 6066,
      "reicht": 6067,
      "gewissen": 6068,
      "Entfern": 6069,
      "##eicher": 6070,
      "ausgest": 6071,
      "Kulturen": 6072,
      "Freundin": 6073,
      "Fahrrad": 6074,
      "##versorgung": 6075,
      "##wirkung": 6076,
      "übrig": 6077,
      "Chemie": 6078,
      "zerstören": 6079,
      "Maßstab": 6080,
      "Träume": 6081,
      "##ographie": 6082,
      "Zweck": 6083,
      "Dat": 6084,
      "Lungen": 6085,
      "On": 6086,
      "Quelle": 6087,
      "Zahn": 6088,
      "rief": 6089,
      "##linge": 6090,
      "##0ern": 6091,
      "##ancen": 6092,
      "zuzu": 6093,
      "verhalten": 6094,
      "Verd": 6095,
      "##ätigkeit": 6096,
      "##räumen": 6097,
      "##vert": 6098,
      "##merzen": 6099,
      "Wissens": 6100,
      "Handel": 6101,
      "exp": 6102,
      "getr": 6103,
      "drin": 6104,
      "Berechn": 6105,
      "##elev": 6106,
      "##stren": 6107,
      "##nahm": 6108,
      "Gewinn": 6109,
      "ermut": 6110,
      "entdeckte": 6111,
      "formen": 6112,
      "Erwart": 6113,
      "##bliothe": 6114,
      "-,": 6115,
      "Bund": 6116,
      "Gro": 6117,
      "Rh": 6118,
      "Rot": 6119,
      "Sob": 6120,
      "bat": 6121,
      "ch": 6122,
      "kombin": 6123,
      "leu": 6124,
      "lernt": 6125,
      "rot": 6126,
      "##hü": 6127,
      "##wa": 6128,
      "##öd": 6129,
      "erschein": 6130,
      "##ets": 6131,
      "##oler": 6132,
      "Start": 6133,
      "umgeben": 6134,
      "##edia": 6135,
      "##räume": 6136,
      "zieht": 6137,
      "Werbung": 6138,
      "Großmutter": 6139,
      "schlechten": 6140,
      "World": 6141,
      "höre": 6142,
      "Urs": 6143,
      "Bereichen": 6144,
      "Präsent": 6145,
      "##gemeinen": 6146,
      "##uldig": 6147,
      "Arbeiter": 6148,
      "natürlichen": 6149,
      "wesentlich": 6150,
      "Zitat": 6151,
      "motiv": 6152,
      "erscheint": 6153,
      "Air": 6154,
      "Echt": 6155,
      "Hu": 6156,
      "Kurs": 6157,
      "Lager": 6158,
      "ide": 6159,
      "nerv": 6160,
      "##ging": 6161,
      "##aser": 6162,
      "ergibt": 6163,
      "verteilt": 6164,
      "##ession": 6165,
      "##äne": 6166,
      "Bestand": 6167,
      "Auff": 6168,
      "real": 6169,
      "##lav": 6170,
      "gelöst": 6171,
      "industrie": 6172,
      "solcher": 6173,
      "erkennt": 6174,
      "Situationen": 6175,
      "verbessert": 6176,
      "Risiken": 6177,
      "enorme": 6178,
      "definieren": 6179,
      "Geheimnis": 6180,
      "unabhängig": 6181,
      "notwendig": 6182,
      "fähig": 6183,
      "Hom": 6184,
      "Zauber": 6185,
      "nu": 6186,
      "sy": 6187,
      "##pol": 6188,
      "##ube": 6189,
      "##zig": 6190,
      "##enter": 6191,
      "##ehung": 6192,
      "unend": 6193,
      "##recken": 6194,
      "Schle": 6195,
      "deswegen": 6196,
      "kannte": 6197,
      "Einheit": 6198,
      "Anim": 6199,
      "Voraus": 6200,
      "Flücht": 6201,
      "Platt": 6202,
      "langweil": 6203,
      "menschlicher": 6204,
      "Geräu": 6205,
      "##nost": 6206,
      "Parad": 6207,
      "Damals": 6208,
      "Anderson": 6209,
      "worüber": 6210,
      "gebeten": 6211,
      "Früh": 6212,
      "Zwischen": 6213,
      "Stammzellen": 6214,
      "##sprache": 6215,
      "nützlich": 6216,
      "Buchstaben": 6217,
      "Bem": 6218,
      "Leg": 6219,
      "Leider": 6220,
      "Paul": 6221,
      "Pingu": 6222,
      "Tradition": 6223,
      "Wein": 6224,
      "dur": 6225,
      "ille": 6226,
      "##rieren": 6227,
      "##heim": 6228,
      "##ole": 6229,
      "##besch": 6230,
      "##onische": 6231,
      "##gener": 6232,
      "schätzen": 6233,
      "Spezi": 6234,
      "hinten": 6235,
      "zusätz": 6236,
      "verbindet": 6237,
      "Arbeitspl": 6238,
      "##leist": 6239,
      "Seele": 6240,
      "langfrist": 6241,
      "##gehend": 6242,
      "##icro": 6243,
      "Interaktion": 6244,
      "vermeiden": 6245,
      "vermitteln": 6246,
      "Stuhl": 6247,
      "folgt": 6248,
      "ähnliche": 6249,
      "stattdessen": 6250,
      "Sicherheits": 6251,
      "Verlust": 6252,
      "##züglich": 6253,
      "unterstützt": 6254,
      "quasi": 6255,
      "wirtschaftlichen": 6256,
      "Galaxie": 6257,
      "schrecklich": 6258,
      "##wissenschaft": 6259,
      "Passw": 6260,
      "Vögel": 6261,
      "Definition": 6262,
      "##spielsweise": 6263,
      "And": 6264,
      "Moral": 6265,
      "Open": 6266,
      "Prim": 6267,
      "Vern": 6268,
      "beit": 6269,
      "fundament": 6270,
      "mult": 6271,
      "##heben": 6272,
      "##wechsel": 6273,
      "##jemand": 6274,
      "##ender": 6275,
      "##raht": 6276,
      "überprü": 6277,
      "##weile": 6278,
      "still": 6279,
      "herein": 6280,
      "##flug": 6281,
      "seitdem": 6282,
      "Bedroh": 6283,
      "Süden": 6284,
      "welchem": 6285,
      "##fähig": 6286,
      "##gründet": 6287,
      "Rake": 6288,
      "Wüste": 6289,
      "dunkle": 6290,
      ".«": 6291,
      "Brücke": 6292,
      "Jan": 6293,
      "Krä": 6294,
      "Mess": 6295,
      "Merk": 6296,
      "Seine": 6297,
      "Willen": 6298,
      "effizien": 6299,
      "mut": 6300,
      "##mark": 6301,
      "##lad": 6302,
      "##zös": 6303,
      "##star": 6304,
      "##antes": 6305,
      "##ird": 6306,
      "##aria": 6307,
      "##itation": 6308,
      "aufgebaut": 6309,
      "Stock": 6310,
      "Ungleich": 6311,
      "##gelassen": 6312,
      "Kongress": 6313,
      "versteht": 6314,
      "besuchen": 6315,
      "##samkeit": 6316,
      "##qualität": 6317,
      "Gedicht": 6318,
      "Schuld": 6319,
      "Student": 6320,
      "Anteil": 6321,
      "untersucht": 6322,
      "neur": 6323,
      "##besonder": 6324,
      "Erinnerungen": 6325,
      "tiefer": 6326,
      "ursprüng": 6327,
      "##bewegung": 6328,
      "Auswahl": 6329,
      "##verständlich": 6330,
      "Ass": 6331,
      "Paten": 6332,
      "Tri": 6333,
      "Viertel": 6334,
      "min": 6335,
      "treten": 6336,
      "wes": 6337,
      "##hmen": 6338,
      "##osen": 6339,
      "##ied": 6340,
      "##einbar": 6341,
      "innen": 6342,
      "schlafen": 6343,
      "##ikalien": 6344,
      "besagt": 6345,
      "langer": 6346,
      "##issionen": 6347,
      "Element": 6348,
      "Betr": 6349,
      "Belohn": 6350,
      "digitalen": 6351,
      "internationalen": 6352,
      "Zivilisation": 6353,
      "Diskussion": 6354,
      "Astr": 6355,
      "Danach": 6356,
      "Gre": 6357,
      "Sogar": 6358,
      "##nehmer": 6359,
      "##üst": 6360,
      "##krank": 6361,
      "##karte": 6362,
      "##vol": 6363,
      "##enkt": 6364,
      "##int": 6365,
      "##steigen": 6366,
      "eingesch": 6367,
      "zut": 6368,
      "##llektiv": 6369,
      "voran": 6370,
      "genü": 6371,
      "Deswegen": 6372,
      "##fernen": 6373,
      "Interview": 6374,
      "feststellen": 6375,
      "##kelett": 6376,
      "Neues": 6377,
      "Pfund": 6378,
      "##drückt": 6379,
      "persönlichen": 6380,
      "Ozeane": 6381,
      "Gutes": 6382,
      "Symbol": 6383,
      "Helden": 6384,
      "Philosoph": 6385,
      "inspiriert": 6386,
      "##ffizienz": 6387,
      "westlichen": 6388,
      "Schwierigkeiten": 6389,
      "Wesentlichen": 6390,
      "##ediglich": 6391,
      "beinhaltet": 6392,
      "##besondere": 6393,
      "23": 6394,
      "Brü": 6395,
      "Got": 6396,
      "Gute": 6397,
      "Mart": 6398,
      "Richtig": 6399,
      "Riesen": 6400,
      "Teu": 6401,
      "Trag": 6402,
      "Tour": 6403,
      "Wild": 6404,
      "Wäl": 6405,
      "Zerst": 6406,
      "##nungs": 6407,
      "##ült": 6408,
      "##fir": 6409,
      "##atische": 6410,
      "##einhalb": 6411,
      "##denkt": 6412,
      "##ehlt": 6413,
      "schaff": 6414,
      "##reif": 6415,
      "##ätter": 6416,
      "Einsch": 6417,
      "Gegend": 6418,
      "durchs": 6419,
      "entstand": 6420,
      "konstru": 6421,
      "armen": 6422,
      "brill": 6423,
      "##olitik": 6424,
      "folgende": 6425,
      "schwieriger": 6426,
      "grün": 6427,
      "form": 6428,
      "erstaunliche": 6429,
      "Charles": 6430,
      "kümmer": 6431,
      "Geistes": 6432,
      "Brief": 6433,
      "Erlebnis": 6434,
      "Kombination": 6435,
      "75": 6436,
      "Cy": 6437,
      "Fliegen": 6438,
      "Kö": 6439,
      "Tumor": 6440,
      "You": 6441,
      "bietet": 6442,
      "furcht": 6443,
      "seid": 6444,
      "##ozi": 6445,
      "##kreis": 6446,
      "##air": 6447,
      "##pa": 6448,
      "##por": 6449,
      "##bilder": 6450,
      "##ino": 6451,
      "##orient": 6452,
      "innov": 6453,
      "ersetzen": 6454,
      "beweisen": 6455,
      "Schm": 6456,
      "Anwendung": 6457,
      "darunter": 6458,
      "George": 6459,
      "##angs": 6460,
      "entfernen": 6461,
      "gehol": 6462,
      "##gerät": 6463,
      "Zufall": 6464,
      "liefern": 6465,
      "kollektiv": 6466,
      "Aufnahme": 6467,
      "##okus": 6468,
      "beschrieben": 6469,
      "Gerechtigkeit": 6470,
      "2008": 6471,
      "Kampagne": 6472,
      "Stufe": 6473,
      "kompliziert": 6474,
      "Komponen": 6475,
      "##rimin": 6476,
      "gemeinsame": 6477,
      "##sprung": 6478,
      "persönliche": 6479,
      "dahinter": 6480,
      "Erwachsenen": 6481,
      "belieb": 6482,
      "Fabrik": 6483,
      "Teleskop": 6484,
      "Ac": 6485,
      "Dan": 6486,
      "Gehen": 6487,
      "Lasst": 6488,
      "Tonnen": 6489,
      "domin": 6490,
      "##äfte": 6491,
      "##bet": 6492,
      "##gefü": 6493,
      "gegründet": 6494,
      "Schäd": 6495,
      "##eilung": 6496,
      "##reibung": 6497,
      "vorzu": 6498,
      "vorzustellen": 6499,
      "Einen": 6500,
      "Grundlage": 6501,
      "gefangen": 6502,
      "schwimmen": 6503,
      "##wiesen": 6504,
      "Verbesser": 6505,
      "besondere": 6506,
      "Links": 6507,
      "Kriegs": 6508,
      "##äusern": 6509,
      "leichter": 6510,
      "aufzubauen": 6511,
      "berührt": 6512,
      "faszinierend": 6513,
      "speziell": 6514,
      "fantastisch": 6515,
      "Erfindung": 6516,
      "etc": 6517,
      "bauten": 6518,
      "NASA": 6519,
      "Dutzen": 6520,
      "Dimensionen": 6521,
      "Eier": 6522,
      "Lektion": 6523,
      "Pan": 6524,
      "Wh": 6525,
      "hü": 6526,
      "kogn": 6527,
      "lediglich": 6528,
      "sichtbar": 6529,
      "##zz": 6530,
      "##atik": 6531,
      "##elben": 6532,
      "##ise": 6533,
      "aufnehmen": 6534,
      "übernehmen": 6535,
      "##weite": 6536,
      "##ingern": 6537,
      "hierher": 6538,
      "Ung": 6539,
      "##rustr": 6540,
      "##ulpt": 6541,
      "Rechen": 6542,
      "brit": 6543,
      "lebens": 6544,
      "Malaria": 6545,
      "##ließend": 6546,
      "##ziehung": 6547,
      "veränderte": 6548,
      "##boden": 6549,
      "##ifiz": 6550,
      "Respekt": 6551,
      "##ränkt": 6552,
      "Nieder": 6553,
      "Jahrzehnten": 6554,
      "Billionen": 6555,
      "Mehrheit": 6556,
      "erhöhen": 6557,
      "Signal": 6558,
      "Transport": 6559,
      "Potential": 6560,
      "Bedürfnisse": 6561,
      "gelebt": 6562,
      "eindeutig": 6563,
      "Bundes": 6564,
      "Teufel": 6565,
      "Bur": 6566,
      "Kom": 6567,
      "Wagen": 6568,
      "dün": 6569,
      "fil": 6570,
      "poten": 6571,
      "to": 6572,
      "trag": 6573,
      "##ael": 6574,
      "##bchen": 6575,
      "##inkt": 6576,
      "##ichter": 6577,
      "##igste": 6578,
      "##bevölkerung": 6579,
      "ausger": 6580,
      "meinte": 6581,
      "spät": 6582,
      "##ried": 6583,
      "##unktionen": 6584,
      "Chip": 6585,
      "##haften": 6586,
      "verwandelt": 6587,
      "##andert": 6588,
      "##losigkeit": 6589,
      "Wow": 6590,
      "##ammelt": 6591,
      "##iveau": 6592,
      "Gedächtnis": 6593,
      "Darum": 6594,
      "großartigen": 6595,
      "Programme": 6596,
      "##ränk": 6597,
      "Aktivitäten": 6598,
      "Chemikalien": 6599,
      "überwinden": 6600,
      "gespielt": 6601,
      "##ippen": 6602,
      "Instrument": 6603,
      "transport": 6604,
      "Stärke": 6605,
      "Hilfs": 6606,
      "22": 6607,
      "GP": 6608,
      "Hem": 6609,
      "Hunde": 6610,
      "James": 6611,
      "Pri": 6612,
      "Welten": 6613,
      "Wechsel": 6614,
      "##ex": 6615,
      "##put": 6616,
      "##fig": 6617,
      "##ndung": 6618,
      "##igem": 6619,
      "verab": 6620,
      "##werfen": 6621,
      "##vermögen": 6622,
      "Weihn": 6623,
      "Gebiete": 6624,
      "Momente": 6625,
      "Wirtschaftsw": 6626,
      "Bauch": 6627,
      "Gesichts": 6628,
      "##sprozess": 6629,
      "fasziniert": 6630,
      "Webseite": 6631,
      "wirtschaftliche": 6632,
      "wirkliche": 6633,
      "Pakistan": 6634,
      "Kontinent": 6635,
      "Sobald": 6636,
      "Gottes": 6637,
      "Allt": 6638,
      "Gibt": 6639,
      "Vier": 6640,
      "Zent": 6641,
      "moment": 6642,
      "##ps": 6643,
      "##ähm": 6644,
      "##blichen": 6645,
      "##hrop": 6646,
      "intens": 6647,
      "##bern": 6648,
      "versp": 6649,
      "##euern": 6650,
      "##omatisch": 6651,
      "##ruh": 6652,
      "gesellschaft": 6653,
      "steuern": 6654,
      "zeigten": 6655,
      "arme": 6656,
      "Herren": 6657,
      "Nachhalt": 6658,
      "Blumen": 6659,
      "bedeut": 6660,
      "Lebenser": 6661,
      "heiß": 6662,
      "##ängst": 6663,
      "##ida": 6664,
      "Bibliothe": 6665,
      "Skla": 6666,
      "##uropä": 6667,
      "drauf": 6668,
      "blauen": 6669,
      "Adam": 6670,
      "moderne": 6671,
      "Terrorismus": 6672,
      "baute": 6673,
      "##gruppen": 6674,
      "junger": 6675,
      "Stattdessen": 6676,
      "Metapher": 6677,
      "durchschnittliche": 6678,
      "Echtzeit": 6679,
      "Immer": 6680,
      "Kate": 6681,
      "Kabel": 6682,
      "Nase": 6683,
      "Trau": 6684,
      "Zer": 6685,
      "rote": 6686,
      "singen": 6687,
      "sucht": 6688,
      "##hls": 6689,
      "##ühen": 6690,
      "##kal": 6691,
      "##artet": 6692,
      "soviel": 6693,
      "fürs": 6694,
      "##ago": 6695,
      "ausgew": 6696,
      "ums": 6697,
      "Inspir": 6698,
      "##ational": 6699,
      "allgemein": 6700,
      "##örm": 6701,
      "unteren": 6702,
      "stehe": 6703,
      "##ücken": 6704,
      "weiterer": 6705,
      "gewählt": 6706,
      "##gesamt": 6707,
      "Weiter": 6708,
      "Steve": 6709,
      "gefällt": 6710,
      "funktionierte": 6711,
      "erhielt": 6712,
      "##systeme": 6713,
      "Skulpt": 6714,
      "positive": 6715,
      "lokalen": 6716,
      "medizinischen": 6717,
      "Geburtstag": 6718,
      "erweitern": 6719,
      "Mittag": 6720,
      "kreieren": 6721,
      "vertraut": 6722,
      "Ehr": 6723,
      "Get": 6724,
      "Tief": 6725,
      "Zunächst": 6726,
      "log": 6727,
      "länd": 6728,
      "lachen": 6729,
      "leist": 6730,
      "Ähn": 6731,
      "##ton": 6732,
      "##teile": 6733,
      "##äden": 6734,
      "##bi": 6735,
      "##bas": 6736,
      "##bieten": 6737,
      "##frei": 6738,
      "##iellen": 6739,
      "##berg": 6740,
      "erz": 6741,
      "verschl": 6742,
      "Schritte": 6743,
      "Überzeug": 6744,
      "Mengen": 6745,
      "##nose": 6746,
      "falschen": 6747,
      "Vorteile": 6748,
      "Folie": 6749,
      "unbek": 6750,
      "##wärmung": 6751,
      "##arbeitung": 6752,
      "bekomme": 6753,
      "internationale": 6754,
      "Gemäl": 6755,
      "Achse": 6756,
      "Nigeria": 6757,
      "Francisco": 6758,
      "Dunkel": 6759,
      "Et": 6760,
      "Fast": 6761,
      "Jun": 6762,
      "Laut": 6763,
      "Mult": 6764,
      "Popul": 6765,
      "mark": 6766,
      "##nglich": 6767,
      "##nütz": 6768,
      "##gas": 6769,
      "##bür": 6770,
      "##arr": 6771,
      "##unkten": 6772,
      "##andid": 6773,
      "##örungen": 6774,
      "enthält": 6775,
      "mögliche": 6776,
      "##adel": 6777,
      "Gesamt": 6778,
      "begrü": 6779,
      "##verhalten": 6780,
      "glaubte": 6781,
      "besitzt": 6782,
      "Absicht": 6783,
      "Bericht": 6784,
      "unglaublichen": 6785,
      "##gangs": 6786,
      "Wirtschafts": 6787,
      "Betrach": 6788,
      "anfing": 6789,
      "##zwungen": 6790,
      "ansieht": 6791,
      "##imeter": 6792,
      "akzeptieren": 6793,
      "überraschend": 6794,
      "Statistiken": 6795,
      "Kirche": 6796,
      "Asien": 6797,
      "Hunger": 6798,
      "gegenseitig": 6799,
      "Eth": 6800,
      "Top": 6801,
      "fei": 6802,
      "##nä": 6803,
      "##hes": 6804,
      "##krie": 6805,
      "eingeb": 6806,
      "##unternehmen": 6807,
      "inform": 6808,
      "dieselben": 6809,
      "bezeichnen": 6810,
      "schne": 6811,
      "manchen": 6812,
      "überlegen": 6813,
      "##spiegel": 6814,
      "Einstellung": 6815,
      "standen": 6816,
      "Unfall": 6817,
      "weißen": 6818,
      "durchführen": 6819,
      "Chic": 6820,
      "bestät": 6821,
      "##reiche": 6822,
      "Dafür": 6823,
      "heisst": 6824,
      "Überrasch": 6825,
      "Ext": 6826,
      "Phot": 6827,
      "Phase": 6828,
      "gebraucht": 6829,
      "##ibiot": 6830,
      "Gegenwart": 6831,
      "platz": 6832,
      "jener": 6833,
      "grundle": 6834,
      "Innovationen": 6835,
      "Erdbe": 6836,
      "Männchen": 6837,
      "Sternen": 6838,
      "Aussage": 6839,
      "##jährigen": 6840,
      "Winter": 6841,
      "Löcher": 6842,
      "Kenia": 6843,
      "Literatur": 6844,
      "Wettbewerb": 6845,
      "Russland": 6846,
      "Pen": 6847,
      "Soll": 6848,
      "arab": 6849,
      "gra": 6850,
      "landen": 6851,
      "reisen": 6852,
      "ult": 6853,
      "##hängen": 6854,
      "##mehr": 6855,
      "##ax": 6856,
      "##äum": 6857,
      "##biert": 6858,
      "##far": 6859,
      "##urer": 6860,
      "angenommen": 6861,
      "##red": 6862,
      "Stahl": 6863,
      "##osh": 6864,
      "##abet": 6865,
      "vieles": 6866,
      "##ärm": 6867,
      "##fliegen": 6868,
      "Sozi": 6869,
      "Vorhers": 6870,
      "Cha": 6871,
      "verstehe": 6872,
      "Mod": 6873,
      "willst": 6874,
      "besseres": 6875,
      "menschliches": 6876,
      "Computern": 6877,
      "Stücke": 6878,
      "Gesichter": 6879,
      "Anders": 6880,
      "grundsätzlich": 6881,
      "Jahrzehnte": 6882,
      "2010": 6883,
      "Ereignis": 6884,
      "dauerte": 6885,
      "Säuget": 6886,
      "Damen": 6887,
      "Jung": 6888,
      "Noten": 6889,
      "Völker": 6890,
      "stet": 6891,
      "ökonom": 6892,
      "##nern": 6893,
      "##stud": 6894,
      "##schriften": 6895,
      "sparen": 6896,
      "gener": 6897,
      "##äufer": 6898,
      "Blatt": 6899,
      "gefallen": 6900,
      "Boston": 6901,
      "Roh": 6902,
      "##iban": 6903,
      "Darwin": 6904,
      "##erkennung": 6905,
      "komplexen": 6906,
      "##linie": 6907,
      "Kameras": 6908,
      "Prinzipien": 6909,
      "blaue": 6910,
      "Kanada": 6911,
      "Armee": 6912,
      "perfekte": 6913,
      "Widerstand": 6914,
      "afrikanischen": 6915,
      "Untersuchung": 6916,
      "jünger": 6917,
      "Epidemie": 6918,
      "##antasie": 6919,
      "Hotel": 6920,
      "Alex": 6921,
      "Meister": 6922,
      "Okt": 6923,
      "Sm": 6924,
      "Sel": 6925,
      "SMS": 6926,
      "Ven": 6927,
      "Wann": 6928,
      "[\"": 6929,
      "heil": 6930,
      "prim": 6931,
      "senden": 6932,
      "tats": 6933,
      "trans": 6934,
      "trinken": 6935,
      "##ih": 6936,
      "##abe": 6937,
      "##chtet": 6938,
      "einiges": 6939,
      "##anc": 6940,
      "untern": 6941,
      "scheinbar": 6942,
      "##önt": 6943,
      "übersch": 6944,
      "Wirkung": 6945,
      "Schwer": 6946,
      "dargestellt": 6947,
      "##zepte": 6948,
      "##anger": 6949,
      "Bevor": 6950,
      "##zipl": 6951,
      "##ward": 6952,
      "Dazu": 6953,
      "Regierungs": 6954,
      "Musl": 6955,
      "Antibiot": 6956,
      "beobachte": 6957,
      "Küste": 6958,
      "führten": 6959,
      "Führer": 6960,
      "Südafrika": 6961,
      "Fortschritte": 6962,
      "Signale": 6963,
      "springen": 6964,
      "moralische": 6965,
      "behaupten": 6966,
      "sowas": 6967,
      "sogenannte": 6968,
      "äußerst": 6969,
      "Amazon": 6970,
      "aufgewachsen": 6971,
      "Angeles": 6972,
      "Dia": 6973,
      "Nutzung": 6974,
      "Ost": 6975,
      "drücken": 6976,
      "fingen": 6977,
      "gt": 6978,
      "günst": 6979,
      "wüs": 6980,
      "ök": 6981,
      "##nitten": 6982,
      "##phen": 6983,
      "##bungen": 6984,
      "##yd": 6985,
      "vertrauen": 6986,
      "##ley": 6987,
      "mitte": 6988,
      "##etze": 6989,
      "Verstehen": 6990,
      "##reibe": 6991,
      "Arz": 6992,
      "Annahme": 6993,
      "beibringen": 6994,
      "Uni": 6995,
      "Spann": 6996,
      "Zeitung": 6997,
      "##räger": 6998,
      "##underten": 6999,
      "geschlossen": 7000,
      "besorgt": 7001,
      "bekannten": 7002,
      "irgendjemand": 7003,
      "##probieren": 7004,
      "Informations": 7005,
      "Verbrechen": 7006,
      "Darstellung": 7007,
      "gemeinsamen": 7008,
      "Grün": 7009,
      "##zeigen": 7010,
      "bemerkte": 7011,
      "schwarzen": 7012,
      "kostenlos": 7013,
      "bemerkenswer": 7014,
      "##bücher": 7015,
      "verblü": 7016,
      "Teenager": 7017,
      "genügend": 7018,
      "Emp": 7019,
      "Flie": 7020,
      "Micro": 7021,
      "Such": 7022,
      "Tu": 7023,
      "Taschen": 7024,
      "froh": 7025,
      "lt": 7026,
      "leiten": 7027,
      "zü": 7028,
      "##richtet": 7029,
      "##mechan": 7030,
      "##pflanzen": 7031,
      "##wen": 7032,
      "ang": 7033,
      "##amour": 7034,
      "Star": 7035,
      "##see": 7036,
      "##spar": 7037,
      "Argument": 7038,
      "##uliert": 7039,
      "##üssen": 7040,
      "Mangel": 7041,
      "Vorstellungen": 7042,
      "##echnet": 7043,
      "offenen": 7044,
      "Trick": 7045,
      "Motiv": 7046,
      "biologische": 7047,
      "Status": 7048,
      "Molekül": 7049,
      "Marketing": 7050,
      "##zweif": 7051,
      "Räume": 7052,
      "iPh": 7053,
      "kriegen": 7054,
      "antwortete": 7055,
      "Vorstellungskraft": 7056,
      "Ast": 7057,
      "Mio": 7058,
      "Ohren": 7059,
      "Quellen": 7060,
      "Rett": 7061,
      "Tur": 7062,
      "trafen": 7063,
      "##fert": 7064,
      "##quelle": 7065,
      "##ndlich": 7066,
      "##eiben": 7067,
      "zufrieden": 7068,
      "##oret": 7069,
      "angem": 7070,
      "ausgel": 7071,
      "Schließlich": 7072,
      "##echnen": 7073,
      "Bevölker": 7074,
      "##ney": 7075,
      "konfront": 7076,
      "realen": 7077,
      "Ausstellung": 7078,
      "##gesellschaft": 7079,
      "Unterricht": 7080,
      "Unterhaltung": 7081,
      "weiße": 7082,
      "##ics": 7083,
      "##ältigen": 7084,
      "sozial": 7085,
      "##dreht": 7086,
      "##schneiden": 7087,
      "verknü": 7088,
      "Eigent": 7089,
      "freien": 7090,
      "Pflege": 7091,
      "##staat": 7092,
      "Regenw": 7093,
      "speziellen": 7094,
      "Michael": 7095,
      "merken": 7096,
      "zeichnen": 7097,
      "Resultat": 7098,
      "Elefanten": 7099,
      "Präsentation": 7100,
      "Nachhaltigkeit": 7101,
      "Alt": 7102,
      "Center": 7103,
      "Tit": 7104,
      "Treib": 7105,
      "europä": 7106,
      "nannten": 7107,
      "Ära": 7108,
      "##mar": 7109,
      "##preis": 7110,
      "##uhren": 7111,
      "##zten": 7112,
      "##förm": 7113,
      "##enten": 7114,
      "##tele": 7115,
      "##ller": 7116,
      "##ores": 7117,
      "wirkt": 7118,
      "##dete": 7119,
      "verglichen": 7120,
      "Stan": 7121,
      "Anwend": 7122,
      "städt": 7123,
      "##füllt": 7124,
      "Geschenk": 7125,
      "##barer": 7126,
      "##gelt": 7127,
      "hinunter": 7128,
      "##zif": 7129,
      "berichten": 7130,
      "verlang": 7131,
      "expl": 7132,
      "Wegen": 7133,
      "solange": 7134,
      "unglück": 7135,
      "Gemeinschaften": 7136,
      "Syn": 7137,
      "Paris": 7138,
      "Christ": 7139,
      "verschwunden": 7140,
      "teilweise": 7141,
      "Neurow": 7142,
      "langsamer": 7143,
      "##linien": 7144,
      "hörten": 7145,
      "##ysikal": 7146,
      "vergröß": 7147,
      "lokale": 7148,
      "organisieren": 7149,
      "staat": 7150,
      "Märkte": 7151,
      "Frankreich": 7152,
      "super": 7153,
      "Ah": 7154,
      "Aben": 7155,
      "Arab": 7156,
      "Beit": 7157,
      "Fokus": 7158,
      "Gal": 7159,
      "Hat": 7160,
      "Samen": 7161,
      "achten": 7162,
      "baut": 7163,
      "dynam": 7164,
      "frem": 7165,
      "fährt": 7166,
      "kop": 7167,
      "suchte": 7168,
      "treiben": 7169,
      "##rien": 7170,
      "##mensch": 7171,
      "##part": 7172,
      "##inhalb": 7173,
      "##auten": 7174,
      "unmittel": 7175,
      "verz": 7176,
      "##zenz": 7177,
      "Versch": 7178,
      "Angeb": 7179,
      "beispielsweise": 7180,
      "Span": 7181,
      "Weltkrieg": 7182,
      "##bstoff": 7183,
      "abgesch": 7184,
      "einfaches": 7185,
      "Chancen": 7186,
      "besessen": 7187,
      "##fahrer": 7188,
      "betreiben": 7189,
      "194": 7190,
      "Regionen": 7191,
      "dreh": 7192,
      "Strand": 7193,
      "##ätzt": 7194,
      "Kapitel": 7195,
      "worauf": 7196,
      "automatisch": 7197,
      "##behör": 7198,
      "Gemü": 7199,
      "traurig": 7200,
      "Wikip": 7201,
      "Geräusche": 7202,
      "YouT": 7203,
      "Extrem": 7204,
      "Koll": 7205,
      "Mama": 7206,
      "Ohne": 7207,
      "Seh": 7208,
      "Voll": 7209,
      "li": 7210,
      "moch": 7211,
      "##punkte": 7212,
      "wirken": 7213,
      "anhand": 7214,
      "##stechn": 7215,
      "##menge": 7216,
      "##rüstung": 7217,
      "Anstatt": 7218,
      "unterrichten": 7219,
      "##bringt": 7220,
      "Rezept": 7221,
      "repar": 7222,
      "Fläche": 7223,
      "##zählen": 7224,
      "Handys": 7225,
      "2007": 7226,
      "Afrikas": 7227,
      "Musiker": 7228,
      "##fällt": 7229,
      "Darauf": 7230,
      "##ahnsinn": 7231,
      "erkannt": 7232,
      "Besuch": 7233,
      "wertvoll": 7234,
      "gekauft": 7235,
      "Krieges": 7236,
      "Klassenzimmer": 7237,
      "begegnen": 7238,
      "stoppen": 7239,
      "Merkmal": 7240,
      "geholfen": 7241,
      "tatsäch": 7242,
      "YouTube": 7243,
      "Acht": 7244,
      "Dör": 7245,
      "Dokument": 7246,
      "Ehem": 7247,
      "Tö": 7248,
      "Treffen": 7249,
      "Witz": 7250,
      "wüten": 7251,
      "##tausende": 7252,
      "##läss": 7253,
      "##karten": 7254,
      "##stimmen": 7255,
      "##ittlich": 7256,
      "erhe": 7257,
      "voneinander": 7258,
      "umher": 7259,
      "##ilen": 7260,
      "Schicht": 7261,
      "Schaden": 7262,
      "woher": 7263,
      "wofür": 7264,
      "spüren": 7265,
      "enthalten": 7266,
      "Repu": 7267,
      "glaubten": 7268,
      "selbstverständlich": 7269,
      "arm": 7270,
      "##okuss": 7271,
      "##sterben": 7272,
      "betroffen": 7273,
      "##leib": 7274,
      "##scheinend": 7275,
      "University": 7276,
      "Kredit": 7277,
      "wenigstens": 7278,
      "##holz": 7279,
      "Symm": 7280,
      "grünen": 7281,
      "Teams": 7282,
      "physikal": 7283,
      "Magie": 7284,
      "digitale": 7285,
      "Proteine": 7286,
      "##würd": 7287,
      "erhöht": 7288,
      "versteckt": 7289,
      "Ingenieur": 7290,
      "isol": 7291,
      "##cyc": 7292,
      "##schmutzung": 7293,
      "Entfernung": 7294,
      "Chicago": 7295,
      "27": 7296,
      "Grippe": 7297,
      "Hal": 7298,
      "Mel": 7299,
      "Send": 7300,
      "Sicher": 7301,
      "hielten": 7302,
      "mil": 7303,
      "wisst": 7304,
      "##manden": 7305,
      "##kultur": 7306,
      "##kräfte": 7307,
      "##person": 7308,
      "##uck": 7309,
      "##fakt": 7310,
      "##flekt": 7311,
      "##vis": 7312,
      "##ire": 7313,
      "##onent": 7314,
      "derselben": 7315,
      "##acher": 7316,
      "##ison": 7317,
      "schreibt": 7318,
      "ausgesetzt": 7319,
      "Stä": 7320,
      "überein": 7321,
      "Schalt": 7322,
      "##ience": 7323,
      "nachts": 7324,
      "neugier": 7325,
      "##lernen": 7326,
      "Flüss": 7327,
      "verstand": 7328,
      "Klar": 7329,
      "##geschwindigkeit": 7330,
      "##ordin": 7331,
      "gebrochen": 7332,
      "Schlacht": 7333,
      "alter": 7334,
      "angeht": 7335,
      "starben": 7336,
      "garant": 7337,
      "##kehrt": 7338,
      "General": 7339,
      "erwachsen": 7340,
      "anschaut": 7341,
      "Freiwill": 7342,
      "Sonnenlicht": 7343,
      "Psychologie": 7344,
      "Sympt": 7345,
      "veröffentlichen": 7346,
      "Faktor": 7347,
      "Schweden": 7348,
      "Feind": 7349,
      "beteiligt": 7350,
      "weshalb": 7351,
      "Zerstörung": 7352,
      "Chaos": 7353,
      "Wikipedia": 7354,
      "Abl": 7355,
      "Beute": 7356,
      "Dad": 7357,
      "Lad": 7358,
      "Py": 7359,
      "Simul": 7360,
      "enden": 7361,
      "merk": 7362,
      "mechan": 7363,
      "risk": 7364,
      "##mut": 7365,
      "##ias": 7366,
      "##su": 7367,
      "##ahnen": 7368,
      "##di": 7369,
      "##beln": 7370,
      "##ines": 7371,
      "##unruh": 7372,
      "umfassen": 7373,
      "Schok": 7374,
      "##zuführen": 7375,
      "darstellt": 7376,
      "hinauf": 7377,
      "reagiert": 7378,
      "verstär": 7379,
      "irgendeine": 7380,
      "insbesondere": 7381,
      "##ktivität": 7382,
      "##älte": 7383,
      "Große": 7384,
      "Atlant": 7385,
      "anget": 7386,
      "Darüber": 7387,
      "beeindru": 7388,
      "produktiv": 7389,
      "forder": 7390,
      "weltweiten": 7391,
      "grosse": 7392,
      "Sichtweise": 7393,
      "Hühn": 7394,
      "##gehör": 7395,
      "Ernährung": 7396,
      "Street": 7397,
      "profession": 7398,
      "respekt": 7399,
      "Chef": 7400,
      "Schnee": 7401,
      "Konsequenzen": 7402,
      "GPS": 7403,
      "BG": 7404,
      "BIP": 7405,
      "Hunderte": 7406,
      "Mr": 7407,
      "Ment": 7408,
      "Mamm": 7409,
      "doppelt": 7410,
      "fehlt": 7411,
      "hieß": 7412,
      "##mat": 7413,
      "##gab": 7414,
      "eingeladen": 7415,
      "##ehrte": 7416,
      "##bek": 7417,
      "Schicks": 7418,
      "mehreren": 7419,
      "zweimal": 7420,
      "Aufnahmen": 7421,
      "dreidimension": 7422,
      "betrieben": 7423,
      "Weis": 7424,
      "Abfall": 7425,
      "bekannte": 7426,
      "2005": 7427,
      "Rock": 7428,
      "##hof": 7429,
      "Spielzeug": 7430,
      "##soft": 7431,
      "Metall": 7432,
      "half": 7433,
      "##own": 7434,
      "##züge": 7435,
      "konzentriert": 7436,
      "##iverse": 7437,
      "##athie": 7438,
      "##ördert": 7439,
      "##puls": 7440,
      "Algorithmen": 7441,
      "Bomben": 7442,
      "Physiker": 7443,
      "Verbreitung": 7444,
      "Tiefe": 7445,
      "Ägypten": 7446,
      "vergangenen": 7447,
      "##ollywood": 7448,
      "Akte": 7449,
      "Kart": 7450,
      "Mass": 7451,
      "Machen": 7452,
      "Sechs": 7453,
      "Skelett": 7454,
      "heilen": 7455,
      "kalt": 7456,
      "wechseln": 7457,
      "##nach": 7458,
      "##li": 7459,
      "##ziel": 7460,
      "##bie": 7461,
      "##yr": 7462,
      "##ymp": 7463,
      "##inter": 7464,
      "##stö": 7465,
      "##standen": 7466,
      "##lichkeiten": 7467,
      "angen": 7468,
      "bewirken": 7469,
      "bezüglich": 7470,
      "##rast": 7471,
      "##ikations": 7472,
      "##etztlich": 7473,
      "##werken": 7474,
      "Reaktionen": 7475,
      "Sow": 7476,
      "niemanden": 7477,
      "##gebiet": 7478,
      "zusammenarbeiten": 7479,
      "Kleidung": 7480,
      "##leistung": 7481,
      "##älter": 7482,
      "Level": 7483,
      "Amerikan": 7484,
      "folgendes": 7485,
      "Biom": 7486,
      "##ätzung": 7487,
      "Behand": 7488,
      "Brow": 7489,
      "intellekt": 7490,
      "folgenden": 7491,
      "reduziert": 7492,
      "##ynamik": 7493,
      "##gedacht": 7494,
      "##wahrscheinlich": 7495,
      "##leistungen": 7496,
      "grundlegend": 7497,
      "32": 7498,
      "Aktion": 7499,
      "Dsch": 7500,
      "Futter": 7501,
      "dunkel": 7502,
      "hängen": 7503,
      "lö": 7504,
      "lehren": 7505,
      "nett": 7506,
      "trug": 7507,
      "##teils": 7508,
      "##sver": 7509,
      "##van": 7510,
      "##entwick": 7511,
      "##erte": 7512,
      "##eira": 7513,
      "ergeben": 7514,
      "##igungs": 7515,
      "beenden": 7516,
      "beunruh": 7517,
      "gebl": 7518,
      "##bekommen": 7519,
      "überqu": 7520,
      "Schild": 7521,
      "Erinnern": 7522,
      "Infekt": 7523,
      "Verk": 7524,
      "Verlauf": 7525,
      "##ätte": 7526,
      "nachgedacht": 7527,
      "Zeitraum": 7528,
      "Geschäfte": 7529,
      "##flu": 7530,
      "##aufnahme": 7531,
      "versorgen": 7532,
      "Aufbau": 7533,
      "besuchte": 7534,
      "Teilnehmer": 7535,
      "##same": 7536,
      "Sequenz": 7537,
      "lebenden": 7538,
      "lebendig": 7539,
      "lebe": 7540,
      "Mont": 7541,
      "Gericht": 7542,
      "Robert": 7543,
      "1000": 7544,
      "verkauf": 7545,
      "erneut": 7546,
      "verdient": 7547,
      "Behinder": 7548,
      "Island": 7549,
      "Presse": 7550,
      "Sonnensystem": 7551,
      "Wachstums": 7552,
      "definiert": 7553,
      "Higgs": 7554,
      "##stoffen": 7555,
      "Analyse": 7556,
      "Brustkrebs": 7557,
      "Potenzial": 7558,
      "Ereignisse": 7559,
      "Instrumente": 7560,
      "aufgeregt": 7561,
      "Persönlichkeit": 7562,
      "Erwartungen": 7563,
      "Inspiration": 7564,
      "Erdbeben": 7565,
      "Antibiotika": 7566,
      "iPhone": 7567,
      "65": 7568,
      "Klav": 7569,
      "Pra": 7570,
      "com": 7571,
      "dienen": 7572,
      "ew": 7573,
      "wä": 7574,
      "Übr": 7575,
      "##lesen": 7576,
      "##oß": 7577,
      "##ünder": 7578,
      "##pel": 7579,
      "##griffen": 7580,
      "##vater": 7581,
      "##ony": 7582,
      "##its": 7583,
      "##urce": 7584,
      "angesch": 7585,
      "gezogen": 7586,
      "##omas": 7587,
      "späten": 7588,
      "unterwegs": 7589,
      "##obel": 7590,
      "##ittelt": 7591,
      "zurückge": 7592,
      "gerettet": 7593,
      "##stero": 7594,
      "letzter": 7595,
      "##mack": 7596,
      "Box": 7597,
      "Kindes": 7598,
      "Aller": 7599,
      "Versuche": 7600,
      "##schnittlich": 7601,
      "Entschuld": 7602,
      "Gebäuden": 7603,
      "grüne": 7604,
      "250": 7605,
      "rechte": 7606,
      "Krankenh": 7607,
      "hilf": 7608,
      "Science": 7609,
      "Ruhe": 7610,
      "elektrische": 7611,
      "##teln": 7612,
      "Kurve": 7613,
      "Ingenieure": 7614,
      "Faktoren": 7615,
      "Inseln": 7616,
      "##technologie": 7617,
      "Eisen": 7618,
      "Aspekte": 7619,
      "Flagge": 7620,
      "nervös": 7621,
      "Lebenserwart": 7622,
      "Gemälde": 7623,
      "Juni": 7624,
      "Bevölkerungs": 7625,
      "Cr": 7626,
      "Ganzen": 7627,
      "Misch": 7628,
      "Sä": 7629,
      "Wär": 7630,
      "dick": 7631,
      "kat": 7632,
      "system": 7633,
      "sorg": 7634,
      "wid": 7635,
      "##tieren": 7636,
      "##dienst": 7637,
      "##anal": 7638,
      "##onien": 7639,
      "##unklen": 7640,
      "##ory": 7641,
      "##alent": 7642,
      "##hler": 7643,
      "Erste": 7644,
      "Initi": 7645,
      "Verfahren": 7646,
      "##iene": 7647,
      "Anführer": 7648,
      "##gert": 7649,
      "wiederholen": 7650,
      "##yster": 7651,
      "##wellen": 7652,
      "bestand": 7653,
      "##prozess": 7654,
      "##atein": 7655,
      "Pho": 7656,
      "##ruppen": 7657,
      "wundervoll": 7658,
      "Theorien": 7659,
      "Richtungen": 7660,
      "organ": 7661,
      "gründen": 7662,
      "##küste": 7663,
      "Alters": 7664,
      "veröffentlich": 7665,
      "schauten": 7666,
      "eingeführt": 7667,
      "hinzufügen": 7668,
      "studiert": 7669,
      "investiert": 7670,
      "##produktion": 7671,
      "wünschte": 7672,
      "##oberfläche": 7673,
      "umzugehen": 7674,
      "Optim": 7675,
      "momentan": 7676,
      "Arzn": 7677,
      "\"]": 7678,
      "Bla": 7679,
      "Camp": 7680,
      "Hinder": 7681,
      "Mor": 7682,
      "Sing": 7683,
      "chr": 7684,
      "fran": 7685,
      "fokuss": 7686,
      "jahr": 7687,
      "ment": 7688,
      "seht": 7689,
      "##material": 7690,
      "##azin": 7691,
      "##vin": 7692,
      "veran": 7693,
      "ausmachen": 7694,
      "Schreiben": 7695,
      "Verkauf": 7696,
      "##örtlich": 7697,
      "##lied": 7698,
      "begreifen": 7699,
      "Techniken": 7700,
      "einzus": 7701,
      "bedeutete": 7702,
      "dringen": 7703,
      "Berge": 7704,
      "Wissenschaftlern": 7705,
      "Decke": 7706,
      "##zeichnungen": 7707,
      "Gesundheitssystem": 7708,
      "schlug": 7709,
      "Anti": 7710,
      "erfassen": 7711,
      "Pollen": 7712,
      "entscheidend": 7713,
      "deiner": 7714,
      "deinem": 7715,
      "höhere": 7716,
      "Drucker": 7717,
      "verursachen": 7718,
      "spezielle": 7719,
      "inspirieren": 7720,
      "Detail": 7721,
      "##winkel": 7722,
      "Erwachsene": 7723,
      "Chinesen": 7724,
      "grundlegenden": 7725,
      "Alternative": 7726,
      "ursprünglich": 7727,
      "oberen": 7728,
      "Debatte": 7729,
      "Normalerweise": 7730,
      "Bedrohung": 7731,
      "Cyber": 7732,
      "Gemüse": 7733,
      "Astero": 7734,
      "Hir": 7735,
      "Laufen": 7736,
      "Mas": 7737,
      "Rö": 7738,
      "dauern": 7739,
      "diag": 7740,
      "jeg": 7741,
      "mon": 7742,
      "mikro": 7743,
      "##tion": 7744,
      "##handel": 7745,
      "##ses": 7746,
      "##umm": 7747,
      "##zum": 7748,
      "##ähn": 7749,
      "##back": 7750,
      "##eide": 7751,
      "##irbt": 7752,
      "##onischen": 7753,
      "ert": 7754,
      "schüt": 7755,
      "##agte": 7756,
      "ausges": 7757,
      "Scham": 7758,
      "##ienten": 7759,
      "##ungssystem": 7760,
      "##izont": 7761,
      "gelang": 7762,
      "Kohl": 7763,
      "Reisen": 7764,
      "Reihen": 7765,
      "wunderbaren": 7766,
      "Brun": 7767,
      "Angriff": 7768,
      "starken": 7769,
      "ernähren": 7770,
      "naja": 7771,
      "ausser": 7772,
      "##züg": 7773,
      "Rechts": 7774,
      "technischen": 7775,
      "irgendwel": 7776,
      "##abilität": 7777,
      "Entdeckungen": 7778,
      "Mittler": 7779,
      "außergewöhnlich": 7780,
      "Projekten": 7781,
      "Depression": 7782,
      "zunehmend": 7783,
      "Kapitalismus": 7784,
      "Dunkelheit": 7785,
      "mittels": 7786,
      "Weisheit": 7787,
      "Guten": 7788,
      "Lar": 7789,
      "Leiter": 7790,
      "Nähr": 7791,
      "Prü": 7792,
      "Ros": 7793,
      "Sagen": 7794,
      "Toten": 7795,
      "dokument": 7796,
      "gere": 7797,
      "ru": 7798,
      "rufen": 7799,
      "##kap": 7800,
      "##ktes": 7801,
      "##park": 7802,
      "##va": 7803,
      "##viele": 7804,
      "##schicht": 7805,
      "zurecht": 7806,
      "##elen": 7807,
      "##isierte": 7808,
      "##reift": 7809,
      "##zukommen": 7810,
      "##ota": 7811,
      "##ndeten": 7812,
      "##äufe": 7813,
      "besucht": 7814,
      "Weibchen": 7815,
      "Gebrauch": 7816,
      "verliert": 7817,
      "weißt": 7818,
      "bekämpfen": 7819,
      "interessanten": 7820,
      "Universitäten": 7821,
      "##istent": 7822,
      "Hacker": 7823,
      "verkü": 7824,
      "Glet": 7825,
      "Ursprung": 7826,
      "##getragen": 7827,
      "Dame": 7828,
      "woran": 7829,
      "basierend": 7830,
      "Protein": 7831,
      "bemerkenswert": 7832,
      "genetischen": 7833,
      "kulturelle": 7834,
      "Denkweise": 7835,
      "Training": 7836,
      "chemische": 7837,
      "eigentliche": 7838,
      "vorbereitet": 7839,
      "ruhig": 7840,
      "getrennt": 7841,
      "Abente": 7842,
      "Funktionen": 7843,
      "Ghan": 7844,
      "Niveau": 7845,
      "Ruf": 7846,
      "Wahlen": 7847,
      "mel": 7848,
      "prü": 7849,
      "wa": 7850,
      "##hung": 7851,
      "##messer": 7852,
      "##iop": 7853,
      "##sa": 7854,
      "##lager": 7855,
      "##dach": 7856,
      "##gänger": 7857,
      "##inal": 7858,
      "##aumen": 7859,
      "denselben": 7860,
      "##etik": 7861,
      "##leicht": 7862,
      "anhalten": 7863,
      "anpassen": 7864,
      "unsichtbar": 7865,
      "Proben": 7866,
      "machst": 7867,
      "liebte": 7868,
      "Konz": 7869,
      "##ppich": 7870,
      "2009": 7871,
      "##ammlung": 7872,
      "Großen": 7873,
      "##rink": 7874,
      "Schulter": 7875,
      "schwere": 7876,
      "Subst": 7877,
      "Zweifel": 7878,
      "hinterlassen": 7879,
      "Fahrzeug": 7880,
      "##ueller": 7881,
      "ernsthaft": 7882,
      "legt": 7883,
      "erforscht": 7884,
      "Nachbarschaft": 7885,
      "Terroristen": 7886,
      "##nügen": 7887,
      "Sprung": 7888,
      "Mosk": 7889,
      "Mobiltele": 7890,
      "##stuhl": 7891,
      "Trotzdem": 7892,
      "Batterie": 7893,
      "Plattform": 7894,
      "Überraschung": 7895,
      "Lebenserwartung": 7896,
      "700": 7897,
      "Ban": 7898,
      "Dial": 7899,
      "Effizienz": 7900,
      "Humor": 7901,
      "Immun": 7902,
      "Letzten": 7903,
      "Mig": 7904,
      "Male": 7905,
      "Rönt": 7906,
      "Serv": 7907,
      "Tin": 7908,
      "Tra": 7909,
      "Wä": 7910,
      "deut": 7911,
      "tanzen": 7912,
      "zählt": 7913,
      "##rang": 7914,
      "##po": 7915,
      "##fand": 7916,
      "##iness": 7917,
      "##tex": 7918,
      "##lekul": 7919,
      "mitnehmen": 7920,
      "##ams": 7921,
      "schock": 7922,
      "##betes": 7923,
      "Stad": 7924,
      "vorhin": 7925,
      "wovon": 7926,
      "##örtern": 7927,
      "##ots": 7928,
      "spir": 7929,
      "spür": 7930,
      "Weltbevölkerung": 7931,
      "Aufl": 7932,
      "gesunden": 7933,
      "##ücke": 7934,
      "Problems": 7935,
      "zurückkehren": 7936,
      "berück": 7937,
      "Flügel": 7938,
      "Wasserstoff": 7939,
      "##anzt": 7940,
      "Medium": 7941,
      "Haw": 7942,
      "Atomen": 7943,
      "Gegenden": 7944,
      "schwierige": 7945,
      "Knie": 7946,
      "Yorker": 7947,
      "Fahrer": 7948,
      "entfern": 7949,
      "Katze": 7950,
      "Thomas": 7951,
      "atmen": 7952,
      "Serie": 7953,
      "Emissionen": 7954,
      "Mitglieder": 7955,
      "ärm": 7956,
      "kaufte": 7957,
      "Wälder": 7958,
      "Bibliothek": 7959,
      "26": 7960,
      "36": 7961,
      "95": 7962,
      "Bibel": 7963,
      "Heutzutage": 7964,
      "Italien": 7965,
      "Kuh": 7966,
      "Mad": 7967,
      "Vag": 7968,
      "Wäre": 7969,
      "ad": 7970,
      "brechen": 7971,
      "evolution": 7972,
      "eth": 7973,
      "fein": 7974,
      "pf": 7975,
      "relev": 7976,
      "##tä": 7977,
      "##takt": 7978,
      "##hängt": 7979,
      "##kord": 7980,
      "##kette": 7981,
      "##uar": 7982,
      "##ban": 7983,
      "##brech": 7984,
      "##llung": 7985,
      "##roht": 7986,
      "bezeichnet": 7987,
      "schmerz": 7988,
      "vorsichtig": 7989,
      "stre": 7990,
      "##ächer": 7991,
      "speich": 7992,
      "##abor": 7993,
      "Orch": 7994,
      "Konstru": 7995,
      "##ichtete": 7996,
      "##gespr": 7997,
      "##sterblichkeit": 7998,
      "zusammenzu": 7999,
      "##haf": 8000,
      "wahrnehmen": 8001,
      "Autom": 8002,
      "##gehensweise": 8003,
      "musikal": 8004,
      "##grenz": 8005,
      "Systems": 8006,
      "##iox": 8007,
      "Jack": 8008,
      "Schuhe": 8009,
      "Studio": 8010,
      "Afrikaner": 8011,
      "##dringen": 8012,
      "Designs": 8013,
      "##sproblem": 8014,
      "grossen": 8015,
      "höheren": 8016,
      "biologischen": 8017,
      "kontrolliert": 8018,
      "jährige": 8019,
      "Früher": 8020,
      "Konsum": 8021,
      "genetische": 8022,
      "Kreislauf": 8023,
      "Angelegen": 8024,
      "Privatsphäre": 8025,
      "sogenannten": 8026,
      "erfüllen": 8027,
      "Spektrum": 8028,
      "Katastrophe": 8029,
      "Klinik": 8030,
      "exponent": 8031,
      "ländlichen": 8032,
      "Diabetes": 8033,
      "Röntgen": 8034,
      "28": 8035,
      "800": 8036,
      "Don": 8037,
      "Fi": 8038,
      "Lam": 8039,
      "Sha": 8040,
      "Therap": 8041,
      "Ve": 8042,
      "hind": 8043,
      "harte": 8044,
      "koll": 8045,
      "ro": 8046,
      "rob": 8047,
      "wär": 8048,
      "##ete": 8049,
      "##lim": 8050,
      "##zir": 8051,
      "##irgend": 8052,
      "##decken": 8053,
      "unsch": 8054,
      "unvor": 8055,
      "##igungen": 8056,
      "##eta": 8057,
      "anzusehen": 8058,
      "##raun": 8059,
      "gete": 8060,
      "Prost": 8061,
      "Anstieg": 8062,
      "##ops": 8063,
      "genießen": 8064,
      "berechnen": 8065,
      "Plötzlich": 8066,
      "verschiedener": 8067,
      "##ischerweise": 8068,
      "##geschlagen": 8069,
      "Systemen": 8070,
      "beherr": 8071,
      "##alisierte": 8072,
      "Obama": 8073,
      "glücklicher": 8074,
      "Neugier": 8075,
      "Gleichgewicht": 8076,
      "##itiven": 8077,
      "##rimine": 8078,
      "##sprogramm": 8079,
      "dankbar": 8080,
      "##ffizient": 8081,
      "##mitglie": 8082,
      "Würden": 8083,
      "Medikamenten": 8084,
      "Verteid": 8085,
      "visuelle": 8086,
      "##wissenschaften": 8087,
      "Konsumenten": 8088,
      "höchsten": 8089,
      "mächtig": 8090,
      "Gespräche": 8091,
      "Strategien": 8092,
      "Innerhalb": 8093,
      "##operation": 8094,
      "soweit": 8095,
      "chinesische": 8096,
      "konsum": 8097,
      "##schläge": 8098,
      "Elektron": 8099,
      "Zähne": 8100,
      "##ränkungen": 8101,
      "Wirtschaftswachstum": 8102,
      "Schokol": 8103,
      "Schicksal": 8104,
      "Klavier": 8105,
      "französ": 8106,
      "Bier": 8107,
      "DH": 8108,
      "Euch": 8109,
      "Hör": 8110,
      "Letz": 8111,
      "Leid": 8112,
      "Ritu": 8113,
      "Sorge": 8114,
      "Wut": 8115,
      "neigen": 8116,
      "##iat": 8117,
      "##kst": 8118,
      "##pern": 8119,
      "##dliche": 8120,
      "##groß": 8121,
      "##grö": 8122,
      "##fone": 8123,
      "##xis": 8124,
      "##stern": 8125,
      "##atischen": 8126,
      "ungeh": 8127,
      "angehen": 8128,
      "Verwand": 8129,
      "beigebracht": 8130,
      "stimmen": 8131,
      "Spinnen": 8132,
      "##endes": 8133,
      "Source": 8134,
      "zwe": 8135,
      "Herstellung": 8136,
      "Block": 8137,
      "##hai": 8138,
      "Autob": 8139,
      "Überwach": 8140,
      "Muskel": 8141,
      "##fühlt": 8142,
      "Schwestern": 8143,
      "##fordern": 8144,
      "hoher": 8145,
      "ähnlichen": 8146,
      "beeindruck": 8147,
      "riesiges": 8148,
      "##ivileg": 8149,
      "blind": 8150,
      "jenem": 8151,
      "worum": 8152,
      "##stücke": 8153,
      "kreativen": 8154,
      "Enkel": 8155,
      "##ussendlich": 8156,
      "organisiert": 8157,
      "##jährige": 8158,
      "unerwar": 8159,
      "Feed": 8160,
      "Explos": 8161,
      "Schwarz": 8162,
      "Stiftung": 8163,
      "Änderungen": 8164,
      "Vergnügen": 8165,
      "Chirur": 8166,
      "Belohnung": 8167,
      "verblüffen": 8168,
      "Neurowissenschaft": 8169,
      "wütend": 8170,
      "Ghana": 8171,
      "Bang": 8172,
      "Nobel": 8173,
      "sä": 8174,
      "sens": 8175,
      "##sun": 8176,
      "##digt": 8177,
      "##0er": 8178,
      "##anlage": 8179,
      "##ürzen": 8180,
      "vergleich": 8181,
      "verfolgt": 8182,
      "##sens": 8183,
      "wieviel": 8184,
      "gezwungen": 8185,
      "ausgeben": 8186,
      "könne": 8187,
      "Schnell": 8188,
      "##ienste": 8189,
      "Anruf": 8190,
      "##appt": 8191,
      "Manh": 8192,
      "gewann": 8193,
      "kommer": 8194,
      "arch": 8195,
      "gemessen": 8196,
      "Nachfrage": 8197,
      "Blätter": 8198,
      "Autismus": 8199,
      "heiraten": 8200,
      "Marke": 8201,
      "Geruch": 8202,
      "altern": 8203,
      "frühe": 8204,
      "Richtige": 8205,
      "Eigenschaft": 8206,
      "jenen": 8207,
      "politisch": 8208,
      "molekul": 8209,
      "##gemacht": 8210,
      "Verlangen": 8211,
      "qual": 8212,
      "Saal": 8213,
      "änderte": 8214,
      "fantastische": 8215,
      "erklärte": 8216,
      "winzig": 8217,
      "Investitionen": 8218,
      "Transpar": 8219,
      "moralischen": 8220,
      "Inneren": 8221,
      "Einfachheit": 8222,
      "regelmäßig": 8223,
      "Sensoren": 8224,
      "Prototypen": 8225,
      "Hypoth": 8226,
      "Philosophie": 8227,
      "angemessen": 8228,
      "Dadurch": 8229,
      "Bord": 8230,
      "Cart": 8231,
      "Göt": 8232,
      "Nat": 8233,
      "Vi": 8234,
      "äl": 8235,
      "##hel": 8236,
      "##ipl": 8237,
      "##griff": 8238,
      "##bilden": 8239,
      "##vir": 8240,
      "##itiert": 8241,
      "##ichtum": 8242,
      "verpf": 8243,
      "anger": 8244,
      "anscheinend": 8245,
      "gefl": 8246,
      "Schmerzen": 8247,
      "Verwendung": 8248,
      "##ätten": 8249,
      "Einrichtungen": 8250,
      "vielmehr": 8251,
      "Flächen": 8252,
      "##leiter": 8253,
      "beschreibt": 8254,
      "lebende": 8255,
      "Indust": 8256,
      "##hoben": 8257,
      "Haie": 8258,
      "Leber": 8259,
      "##fällig": 8260,
      "##konomen": 8261,
      "##kohol": 8262,
      "planen": 8263,
      "Hinblick": 8264,
      "##ffekte": 8265,
      "Büchern": 8266,
      "##mitteln": 8267,
      "##zusp": 8268,
      "Süß": 8269,
      "Dipl": 8270,
      "Füße": 8271,
      "Knopf": 8272,
      "Küche": 8273,
      "berühren": 8274,
      "kreative": 8275,
      "islam": 8276,
      "Peter": 8277,
      "jüng": 8278,
      "Mitglied": 8279,
      "Budget": 8280,
      "##fältig": 8281,
      "sinnvoll": 8282,
      "kaputt": 8283,
      "Prozesse": 8284,
      "Microsoft": 8285,
      "konfrontiert": 8286,
      "militär": 8287,
      "hindurch": 8288,
      "33": 8289,
      "Ag": 8290,
      "Benz": 8291,
      "Base": 8292,
      "Fer": 8293,
      "Fal": 8294,
      "Grie": 8295,
      "Hören": 8296,
      "Ky": 8297,
      "Ohr": 8298,
      "PM": 8299,
      "cm": 8300,
      "gift": 8301,
      "hassen": 8302,
      "rom": 8303,
      "Älter": 8304,
      "##ham": 8305,
      "##oben": 8306,
      "##aw": 8307,
      "##brochen": 8308,
      "##viert": 8309,
      "##emin": 8310,
      "##gekommen": 8311,
      "unternehmen": 8312,
      "verließ": 8313,
      "##annter": 8314,
      "bewir": 8315,
      "Stick": 8316,
      "##umpf": 8317,
      "Anstren": 8318,
      "stirbt": 8319,
      "##ogramm": 8320,
      "##fühlen": 8321,
      "gesetzt": 8322,
      "Vorschlag": 8323,
      "Umständen": 8324,
      "keines": 8325,
      "##gefallen": 8326,
      "leer": 8327,
      "195": 8328,
      "Woher": 8329,
      "insgesamt": 8330,
      "Karik": 8331,
      "besonderen": 8332,
      "Haushalt": 8333,
      "Unternehmens": 8334,
      "##enseits": 8335,
      "gründete": 8336,
      "Reserv": 8337,
      "##ianer": 8338,
      "##oppel": 8339,
      "schaue": 8340,
      "erwähnen": 8341,
      "Tränen": 8342,
      "winzigen": 8343,
      "echtes": 8344,
      "##würdig": 8345,
      "stärk": 8346,
      "##stoß": 8347,
      "gewöhnt": 8348,
      "##friedenheit": 8349,
      "knapp": 8350,
      "Joe": 8351,
      "korre": 8352,
      "Szene": 8353,
      "mittlerweile": 8354,
      "lächer": 8355,
      "Figur": 8356,
      "spannend": 8357,
      "identifizieren": 8358,
      "infiziert": 8359,
      "Konflikte": 8360,
      "langweilig": 8361,
      "Tragöd": 8362,
      "Komponenten": 8363,
      "Motivation": 8364,
      "Treibhaus": 8365,
      "neugierig": 8366,
      "diagnost": 8367,
      "Daumen": 8368,
      "Egal": 8369,
      "Last": 8370,
      "Ratten": 8371,
      "Sektor": 8372,
      "Trei": 8373,
      "Up": 8374,
      "Valle": 8375,
      "Wen": 8376,
      "dunklen": 8377,
      "flex": 8378,
      "wem": 8379,
      "Ökonomen": 8380,
      "##gut": 8381,
      "##gänge": 8382,
      "##ämen": 8383,
      "##brü": 8384,
      "##fre": 8385,
      "##fassung": 8386,
      "##station": 8387,
      "##asien": 8388,
      "##anischen": 8389,
      "##schiff": 8390,
      "universe": 8391,
      "geöff": 8392,
      "Stil": 8393,
      "übern": 8394,
      "Intu": 8395,
      "durchschnittlich": 8396,
      "##fachen": 8397,
      "##ektar": 8398,
      "lieb": 8399,
      "Vorder": 8400,
      "Ausrüstung": 8401,
      "##gebiete": 8402,
      "##wege": 8403,
      "verbrei": 8404,
      "interpret": 8405,
      "benutze": 8406,
      "Abhäng": 8407,
      "##eitete": 8408,
      "Marken": 8409,
      "##omputer": 8410,
      "Haiti": 8411,
      "Versuchen": 8412,
      "offenbar": 8413,
      "schwerer": 8414,
      "Bedarf": 8415,
      "erneuer": 8416,
      "Betrieb": 8417,
      "Neuigkeiten": 8418,
      "Oberflächen": 8419,
      "Gefangen": 8420,
      "Präsidenten": 8421,
      "aktuelle": 8422,
      "Bedürfnis": 8423,
      "##ortex": 8424,
      "irgendeinem": 8425,
      "analysieren": 8426,
      "Jedenfalls": 8427,
      "Ursache": 8428,
      "Spezial": 8429,
      "##ziplin": 8430,
      "Stanford": 8431,
      "##eiratet": 8432,
      "Transparenz": 8433,
      "Act": 8434,
      "Kr": 8435,
      "Näch": 8436,
      "Rel": 8437,
      "Tum": 8438,
      "Täusch": 8439,
      "häss": 8440,
      "vierte": 8441,
      "##mod": 8442,
      "##ios": 8443,
      "##lösen": 8444,
      "##gült": 8445,
      "##wehr": 8446,
      "##gegangen": 8447,
      "##derm": 8448,
      "##ish": 8449,
      "anstelle": 8450,
      "##ikale": 8451,
      "##ikationen": 8452,
      "##reide": 8453,
      "beides": 8454,
      "alltä": 8455,
      "stieg": 8456,
      "##riebs": 8457,
      "##ologischer": 8458,
      "Kongo": 8459,
      "wiederholt": 8460,
      "zwingen": 8461,
      "Flor": 8462,
      "gelangt": 8463,
      "Handlungen": 8464,
      "gegenwärt": 8465,
      "Muskeln": 8466,
      "kleinere": 8467,
      "gestartet": 8468,
      "Mac": 8469,
      "Mails": 8470,
      "wundervolle": 8471,
      "Sub": 8472,
      "Beton": 8473,
      "Glücks": 8474,
      "##eignet": 8475,
      "Katzen": 8476,
      "##staaten": 8477,
      "Apple": 8478,
      "Mathematiker": 8479,
      "elektrischen": 8480,
      "lernten": 8481,
      "##mögliche": 8482,
      "Chines": 8483,
      "seltsame": 8484,
      "positiven": 8485,
      "emotionale": 8486,
      "wunderschöne": 8487,
      "Zurück": 8488,
      "Sammlung": 8489,
      "Nutzer": 8490,
      "Logik": 8491,
      "Pferd": 8492,
      "Staub": 8493,
      "Januar": 8494,
      "Betracht": 8495,
      "reparieren": 8496,
      "Übrigens": 8497,
      "%.": 8498,
      "AB": 8499,
      "Abt": 8500,
      "Bob": 8501,
      "Ehre": 8502,
      "Hard": 8503,
      "Lass": 8504,
      "Nest": 8505,
      "Tasche": 8506,
      "Wass": 8507,
      "##iffe": 8508,
      "##funktion": 8509,
      "##jet": 8510,
      "##chtern": 8511,
      "inzwischen": 8512,
      "##ichtung": 8513,
      "##ura": 8514,
      "##ros": 8515,
      "verur": 8516,
      "sonder": 8517,
      "manip": 8518,
      "umso": 8519,
      "Schon": 8520,
      "Verteilung": 8521,
      "##weils": 8522,
      "vorn": 8523,
      "nachdenkt": 8524,
      "Anweis": 8525,
      "jeweils": 8526,
      "Konzentr": 8527,
      "zurückgehen": 8528,
      "Umstände": 8529,
      "geraten": 8530,
      "Flasche": 8531,
      "beseit": 8532,
      "gelassen": 8533,
      "##aku": 8534,
      "Alkohol": 8535,
      "Impuls": 8536,
      "Indem": 8537,
      "indischen": 8538,
      "Metern": 8539,
      "Jeff": 8540,
      "##icherung": 8541,
      "Internets": 8542,
      "Glüh": 8543,
      "Biologen": 8544,
      "##twortet": 8545,
      "##design": 8546,
      "freiwill": 8547,
      "Polio": 8548,
      "Life": 8549,
      "##ässer": 8550,
      "##osex": 8551,
      "vernünft": 8552,
      "Höhepunkt": 8553,
      "##metho": 8554,
      "Kugel": 8555,
      "Organe": 8556,
      "begrenzt": 8557,
      "Wurzeln": 8558,
      "Weihnacht": 8559,
      "Symptome": 8560,
      "romant": 8561,
      "Dist": 8562,
      "Fundament": 8563,
      "Fantasie": 8564,
      "Jer": 8565,
      "Kle": 8566,
      "Künst": 8567,
      "Läch": 8568,
      "Meg": 8569,
      "Mak": 8570,
      "PC": 8571,
      "Pop": 8572,
      "TV": 8573,
      "frustr": 8574,
      "human": 8575,
      "mü": 8576,
      "mobil": 8577,
      "rum": 8578,
      "welt": 8579,
      "##tn": 8580,
      "##hst": 8581,
      "##kol": 8582,
      "##ahen": 8583,
      "##gin": 8584,
      "##fung": 8585,
      "##20": 8586,
      "##asern": 8587,
      "##llige": 8588,
      "inklus": 8589,
      "##lichem": 8590,
      "##mmel": 8591,
      "verarbeiten": 8592,
      "##bellen": 8593,
      "ausw": 8594,
      "##stete": 8595,
      "dazwischen": 8596,
      "Anh": 8597,
      "saßen": 8598,
      "Aug": 8599,
      "##geräte": 8600,
      "##räum": 8601,
      "Konzepte": 8602,
      "Vorgang": 8603,
      "##äuschen": 8604,
      "Ausnahme": 8605,
      "beruh": 8606,
      "##klasse": 8607,
      "Entst": 8608,
      "Lebensraum": 8609,
      "geteilt": 8610,
      "##eichen": 8611,
      "##ständige": 8612,
      "##alisierten": 8613,
      "##drehen": 8614,
      "gemeinnütz": 8615,
      "Organismus": 8616,
      "fliegt": 8617,
      "Party": 8618,
      "Höhlen": 8619,
      "##ianischen": 8620,
      "nebenbei": 8621,
      "technische": 8622,
      "verrückte": 8623,
      "Diagnose": 8624,
      "Szenar": 8625,
      "ignorieren": 8626,
      "Pazif": 8627,
      "Gipfel": 8628,
      "Erkrankungen": 8629,
      "Ungleichheit": 8630,
      "Dutzend": 8631,
      "explod": 8632,
      "Ehemann": 8633,
      "verpflich": 8634,
      "Eur": 8635,
      "Hitze": 8636,
      "Mäuse": 8637,
      "Smit": 8638,
      "Zie": 8639,
      "dient": 8640,
      "richten": 8641,
      "simul": 8642,
      "sym": 8643,
      "setzten": 8644,
      "womit": 8645,
      "##kopf": 8646,
      "##pass": 8647,
      "##ches": 8648,
      "##stü": 8649,
      "##städ": 8650,
      "eingehen": 8651,
      "wirksam": 8652,
      "##ight": 8653,
      "##ürze": 8654,
      "##ürzt": 8655,
      "verkl": 8656,
      "verteilen": 8657,
      "##leger": 8658,
      "ausmacht": 8659,
      "Stille": 8660,
      "##ätig": 8661,
      "stra": 8662,
      "stammen": 8663,
      "geworfen": 8664,
      "##aufgaben": 8665,
      "##last": 8666,
      "zusammenge": 8667,
      "beträgt": 8668,
      "Blase": 8669,
      "Gebieten": 8670,
      "Handeln": 8671,
      "##selbe": 8672,
      "Meere": 8673,
      "2001": 8674,
      "##fällen": 8675,
      "Flugzeuge": 8676,
      "fließt": 8677,
      "##thiop": 8678,
      "Partei": 8679,
      "Ebenen": 8680,
      "Europä": 8681,
      "öffnet": 8682,
      "zerstör": 8683,
      "enormen": 8684,
      "ältere": 8685,
      "auftau": 8686,
      "Investition": 8687,
      "Erstaun": 8688,
      "Liebling": 8689,
      "physische": 8690,
      "kreiert": 8691,
      "Cola": 8692,
      "##archie": 8693,
      "##melzen": 8694,
      "mittleren": 8695,
      "eröffnet": 8696,
      "privaten": 8697,
      "schickte": 8698,
      "Texas": 8699,
      "Pflanze": 8700,
      "Astron": 8701,
      "Martin": 8702,
      "Prior": 8703,
      "leistungs": 8704,
      "drehte": 8705,
      "Flüssigkeit": 8706,
      "##ioxid": 8707,
      "getestet": 8708,
      "Manhatt": 8709,
      "kommerzie": 8710,
      "Valley": 8711,
      "Smith": 8712,
      "Av": 8713,
      "Cal": 8714,
      "Gramm": 8715,
      "Hon": 8716,
      "Hundert": 8717,
      "Jähr": 8718,
      "Kuchen": 8719,
      "Kandid": 8720,
      "Sar": 8721,
      "Sur": 8722,
      "Therapie": 8723,
      "Wände": 8724,
      "Waffe": 8725,
      "bildet": 8726,
      "danken": 8727,
      "freie": 8728,
      "rest": 8729,
      "##rel": 8730,
      "##ration": 8731,
      "##lag": 8732,
      "##leiten": 8733,
      "##ku": 8734,
      "##komp": 8735,
      "##politik": 8736,
      "##ua": 8737,
      "##za": 8738,
      "##baut": 8739,
      "##wor": 8740,
      "##vo": 8741,
      "##IS": 8742,
      "##iebt": 8743,
      "invol": 8744,
      "##alem": 8745,
      "erlaub": 8746,
      "aufeinander": 8747,
      "aufrecht": 8748,
      "unsicht": 8749,
      "##andem": 8750,
      "ausgehen": 8751,
      "werdet": 8752,
      "##zenten": 8753,
      "Veranst": 8754,
      "##nthet": 8755,
      "Einheiten": 8756,
      "Spe": 8757,
      "##änner": 8758,
      "weibliche": 8759,
      "Bek": 8760,
      "gesammelt": 8761,
      "abgesehen": 8762,
      "##bran": 8763,
      "##istin": 8764,
      "##schieben": 8765,
      "##imb": 8766,
      "wenden": 8767,
      "##gebäu": 8768,
      "verständ": 8769,
      "##utzer": 8770,
      "keinem": 8771,
      "wahrhaft": 8772,
      "verlor": 8773,
      "muslim": 8774,
      "##quem": 8775,
      "2004": 8776,
      "Rollen": 8777,
      "gestaltet": 8778,
      "sozialer": 8779,
      "Vorträge": 8780,
      "erhielten": 8781,
      "ausgegeben": 8782,
      "Könnte": 8783,
      "Kore": 8784,
      "Dritten": 8785,
      "befest": 8786,
      "Mikroskop": 8787,
      "Kühl": 8788,
      "Magazin": 8789,
      "Maßnahmen": 8790,
      "Frühl": 8791,
      "heutige": 8792,
      "legte": 8793,
      "Thun": 8794,
      "##ytoc": 8795,
      "verstecken": 8796,
      "hingehen": 8797,
      "##organisationen": 8798,
      "Statistik": 8799,
      "schlimmsten": 8800,
      "##ministerium": 8801,
      "ausschließlich": 8802,
      "Globalisierung": 8803,
      "Änderung": 8804,
      "Katastrophen": 8805,
      "Mechanismus": 8806,
      "Toiletten": 8807,
      "durfte": 8808,
      "Raketen": 8809,
      "potent": 8810,
      "Anwendungen": 8811,
      "ungeheuer": 8812,
      "Carto": 8813,
      "geöffnet": 8814,
      "Lau": 8815,
      "Live": 8816,
      "Preise": 8817,
      "fe": 8818,
      "fair": 8819,
      "hell": 8820,
      "halt": 8821,
      "lasst": 8822,
      "misst": 8823,
      "sub": 8824,
      "##ammt": 8825,
      "##dy": 8826,
      "##dauer": 8827,
      "##wandeln": 8828,
      "##quellen": 8829,
      "##ichen": 8830,
      "##eier": 8831,
      "##eigung": 8832,
      "##teste": 8833,
      "##schten": 8834,
      "##geord": 8835,
      "Sieben": 8836,
      "verlei": 8837,
      "antworten": 8838,
      "wartet": 8839,
      "gefahren": 8840,
      "übersetzen": 8841,
      "##etzung": 8842,
      "Verz": 8843,
      "Vermögen": 8844,
      "vorgestellt": 8845,
      "stat": 8846,
      "Bewohner": 8847,
      "entt": 8848,
      "Ausgaben": 8849,
      "Aufstieg": 8850,
      "einziges": 8851,
      "Mount": 8852,
      "1950": 8853,
      "Schweine": 8854,
      "festgestellt": 8855,
      "##otto": 8856,
      "Amerikas": 8857,
      "##jekten": 8858,
      "trocken": 8859,
      "Gleichung": 8860,
      "120": 8861,
      "flog": 8862,
      "auszudrücken": 8863,
      "##itution": 8864,
      "Tode": 8865,
      "Belast": 8866,
      "empfinden": 8867,
      "Bush": 8868,
      "tauchen": 8869,
      "höchst": 8870,
      "Wichtigste": 8871,
      "Entwurf": 8872,
      "chinesischen": 8873,
      "gelegen": 8874,
      "Willi": 8875,
      "komplizierter": 8876,
      "Myth": 8877,
      "Haare": 8878,
      "Resultate": 8879,
      "Auftrag": 8880,
      "Pinguine": 8881,
      "feiern": 8882,
      "Beitrag": 8883,
      "Gletscher": 8884,
      "Moskit": 8885,
      "Dialog": 8886,
      "Letztes": 8887,
      "Feedback": 8888,
      "Lächeln": 8889,
      "Agen": 8890,
      "BF": 8891,
      "Koch": 8892,
      "Tja": 8893,
      "bo": 8894,
      "ehem": 8895,
      "lasse": 8896,
      "letztlich": 8897,
      "mar": 8898,
      "rau": 8899,
      "tre": 8900,
      "zehnt": 8901,
      "öfter": 8902,
      "##to": 8903,
      "##car": 8904,
      "##lament": 8905,
      "##kö": 8906,
      "##gäng": 8907,
      "##bit": 8908,
      "##AR": 8909,
      "##steine": 8910,
      "##eige": 8911,
      "##aters": 8912,
      "##eltern": 8913,
      "##deckt": 8914,
      "gefr": 8915,
      "vorwärts": 8916,
      "Anges": 8917,
      "##icket": 8918,
      "##hent": 8919,
      "hinsichtlich": 8920,
      "reicher": 8921,
      "liebt": 8922,
      "Kontroll": 8923,
      "Ausland": 8924,
      "##gesp": 8925,
      "##meter": 8926,
      "##ändler": 8927,
      "verletzt": 8928,
      "193": 8929,
      "##ogenese": 8930,
      "2006": 8931,
      "Energieverbrauch": 8932,
      "Filter": 8933,
      "schöner": 8934,
      "Gebäudes": 8935,
      "##skraft": 8936,
      "befreien": 8937,
      "Fahrzeuge": 8938,
      "Kapaz": 8939,
      "verschwindet": 8940,
      "erledigen": 8941,
      "##ämpft": 8942,
      "Integr": 8943,
      "älteren": 8944,
      "Business": 8945,
      "nahezu": 8946,
      "Kämpf": 8947,
      "visuellen": 8948,
      "niedrig": 8949,
      "niedriger": 8950,
      "##ythmus": 8951,
      "einzigartig": 8952,
      "außergewöhnliche": 8953,
      "Schwarze": 8954,
      "Nahrungsmittel": 8955,
      "Schlagz": 8956,
      "verliebt": 8957,
      "##tragung": 8958,
      "Journalisten": 8959,
      "Fremden": 8960,
      "Oxytoc": 8961,
      "verringern": 8962,
      "diskutieren": 8963,
      "Onkel": 8964,
      "leuchten": 8965,
      "beitragen": 8966,
      "Green": 8967,
      "kümmert": 8968,
      "Population": 8969,
      "arabischen": 8970,
      "Regenwald": 8971,
      "Angebot": 8972,
      "inklusive": 8973,
      "Adr": 8974,
      "Big": 8975,
      "Ever": 8976,
      "Hollywood": 8977,
      "Lesen": 8978,
      "MR": 8979,
      "Os": 8980,
      "Option": 8981,
      "Pause": 8982,
      "drück": 8983,
      "hung": 8984,
      "heben": 8985,
      "künstler": 8986,
      "“.": 8987,
      "##üte": 8988,
      "##kä": 8989,
      "##pack": 8990,
      "##dat": 8991,
      "##fischen": 8992,
      "##waffen": 8993,
      "##yth": 8994,
      "##iegt": 8995,
      "##assten": 8996,
      "##eis": 8997,
      "##eihen": 8998,
      "zuhören": 8999,
      "int": 9000,
      "##ehnte": 9001,
      "##igant": 9002,
      "##lechter": 9003,
      "anbieten": 9004,
      "schrieben": 9005,
      "schreibe": 9006,
      "Verzwei": 9007,
      "##spunkt": 9008,
      "##edy": 9009,
      "klu": 9010,
      "zweitens": 9011,
      "abgest": 9012,
      "##werte": 9013,
      "##igerweise": 9014,
      "kooper": 9015,
      "Flu": 9016,
      "Kond": 9017,
      "Werden": 9018,
      "heim": 9019,
      "exakt": 9020,
      "Dennoch": 9021,
      "Versorgung": 9022,
      "altes": 9023,
      "Studium": 9024,
      "Gedichte": 9025,
      "##itute": 9026,
      "Hinweise": 9027,
      "Urkn": 9028,
      "Höhle": 9029,
      "##wertung": 9030,
      "weltweite": 9031,
      "Ärzten": 9032,
      "Magnet": 9033,
      "Schülern": 9034,
      "winzige": 9035,
      "billig": 9036,
      "##traktiv": 9037,
      "komplizierte": 9038,
      "Entwicklungsländer": 9039,
      "zentrale": 9040,
      "install": 9041,
      "repräsentiert": 9042,
      "##aktivität": 9043,
      "private": 9044,
      "benutzten": 9045,
      "hüb": 9046,
      "Muslime": 9047,
      "mochte": 9048,
      "Abenteuer": 9049,
      "Are": 9050,
      "Bran": 9051,
      "Clo": 9052,
      "Etw": 9053,
      "King": 9054,
      "Kiste": 9055,
      "Nov": 9056,
      "Pin": 9057,
      "dicht": 9058,
      "japan": 9059,
      "kg": 9060,
      "offiz": 9061,
      "trat": 9062,
      "Übung": 9063,
      "##eah": 9064,
      "##sagen": 9065,
      "##ohlen": 9066,
      "##üd": 9067,
      "##krä": 9068,
      "##brauch": 9069,
      "##burg": 9070,
      "##erd": 9071,
      "##any": 9072,
      "##anlagen": 9073,
      "##schreiben": 9074,
      "ersetzt": 9075,
      "verzweif": 9076,
      "##lever": 9077,
      "##befinden": 9078,
      "ausdrücken": 9079,
      "Stich": 9080,
[...]
